<pad>	0
<bos>	0
<eos>	0
<unk>	0
<0x00>	0
<0x01>	0
<0x02>	0
<0x03>	0
<0x04>	0
<0x05>	0
<0x06>	0
<0x07>	0
<0x08>	0
<0x09>	0
<0x0A>	0
<0x0B>	0
<0x0C>	0
<0x0D>	0
<0x0E>	0
<0x0F>	0
<0x10>	0
<0x11>	0
<0x12>	0
<0x13>	0
<0x14>	0
<0x15>	0
<0x16>	0
<0x17>	0
<0x18>	0
<0x19>	0
<0x1A>	0
<0x1B>	0
<0x1C>	0
<0x1D>	0
<0x1E>	0
<0x1F>	0
<0x20>	0
<0x21>	0
<0x22>	0
<0x23>	0
<0x24>	0
<0x25>	0
<0x26>	0
<0x27>	0
<0x28>	0
<0x29>	0
<0x2A>	0
<0x2B>	0
<0x2C>	0
<0x2D>	0
<0x2E>	0
<0x2F>	0
<0x30>	0
<0x31>	0
<0x32>	0
<0x33>	0
<0x34>	0
<0x35>	0
<0x36>	0
<0x37>	0
<0x38>	0
<0x39>	0
<0x3A>	0
<0x3B>	0
<0x3C>	0
<0x3D>	0
<0x3E>	0
<0x3F>	0
<0x40>	0
<0x41>	0
<0x42>	0
<0x43>	0
<0x44>	0
<0x45>	0
<0x46>	0
<0x47>	0
<0x48>	0
<0x49>	0
<0x4A>	0
<0x4B>	0
<0x4C>	0
<0x4D>	0
<0x4E>	0
<0x4F>	0
<0x50>	0
<0x51>	0
<0x52>	0
<0x53>	0
<0x54>	0
<0x55>	0
<0x56>	0
<0x57>	0
<0x58>	0
<0x59>	0
<0x5A>	0
<0x5B>	0
<0x5C>	0
<0x5D>	0
<0x5E>	0
<0x5F>	0
<0x60>	0
<0x61>	0
<0x62>	0
<0x63>	0
<0x64>	0
<0x65>	0
<0x66>	0
<0x67>	0
<0x68>	0
<0x69>	0
<0x6A>	0
<0x6B>	0
<0x6C>	0
<0x6D>	0
<0x6E>	0
<0x6F>	0
<0x70>	0
<0x71>	0
<0x72>	0
<0x73>	0
<0x74>	0
<0x75>	0
<0x76>	0
<0x77>	0
<0x78>	0
<0x79>	0
<0x7A>	0
<0x7B>	0
<0x7C>	0
<0x7D>	0
<0x7E>	0
<0x7F>	0
<0x80>	0
<0x81>	0
<0x82>	0
<0x83>	0
<0x84>	0
<0x85>	0
<0x86>	0
<0x87>	0
<0x88>	0
<0x89>	0
<0x8A>	0
<0x8B>	0
<0x8C>	0
<0x8D>	0
<0x8E>	0
<0x8F>	0
<0x90>	0
<0x91>	0
<0x92>	0
<0x93>	0
<0x94>	0
<0x95>	0
<0x96>	0
<0x97>	0
<0x98>	0
<0x99>	0
<0x9A>	0
<0x9B>	0
<0x9C>	0
<0x9D>	0
<0x9E>	0
<0x9F>	0
<0xA0>	0
<0xA1>	0
<0xA2>	0
<0xA3>	0
<0xA4>	0
<0xA5>	0
<0xA6>	0
<0xA7>	0
<0xA8>	0
<0xA9>	0
<0xAA>	0
<0xAB>	0
<0xAC>	0
<0xAD>	0
<0xAE>	0
<0xAF>	0
<0xB0>	0
<0xB1>	0
<0xB2>	0
<0xB3>	0
<0xB4>	0
<0xB5>	0
<0xB6>	0
<0xB7>	0
<0xB8>	0
<0xB9>	0
<0xBA>	0
<0xBB>	0
<0xBC>	0
<0xBD>	0
<0xBE>	0
<0xBF>	0
<0xC0>	0
<0xC1>	0
<0xC2>	0
<0xC3>	0
<0xC4>	0
<0xC5>	0
<0xC6>	0
<0xC7>	0
<0xC8>	0
<0xC9>	0
<0xCA>	0
<0xCB>	0
<0xCC>	0
<0xCD>	0
<0xCE>	0
<0xCF>	0
<0xD0>	0
<0xD1>	0
<0xD2>	0
<0xD3>	0
<0xD4>	0
<0xD5>	0
<0xD6>	0
<0xD7>	0
<0xD8>	0
<0xD9>	0
<0xDA>	0
<0xDB>	0
<0xDC>	0
<0xDD>	0
<0xDE>	0
<0xDF>	0
<0xE0>	0
<0xE1>	0
<0xE2>	0
<0xE3>	0
<0xE4>	0
<0xE5>	0
<0xE6>	0
<0xE7>	0
<0xE8>	0
<0xE9>	0
<0xEA>	0
<0xEB>	0
<0xEC>	0
<0xED>	0
<0xEE>	0
<0xEF>	0
<0xF0>	0
<0xF1>	0
<0xF2>	0
<0xF3>	0
<0xF4>	0
<0xF5>	0
<0xF6>	0
<0xF7>	0
<0xF8>	0
<0xF9>	0
<0xFA>	0
<0xFB>	0
<0xFC>	0
<0xFD>	0
<0xFE>	0
<0xFF>	0
▁t	-0
he	-1
▁a	-2
▁s	-3
▁the	-4
in	-5
▁w	-6
re	-7
nd	-8
▁o	-9
▁b	-10
er	-11
ed	-12
▁f	-13
▁c	-14
▁and	-15
ha	-16
▁to	-17
▁m	-18
le	-19
▁$	-20
▁d	-21
is	-22
▁p	-23
it	-24
on	-25
an	-26
▁\	-27
ou	-28
▁T	-29
es	-30
▁of	-31
ra	-32
as	-33
en	-34
al	-35
ing	-36
or	-37
ar	-38
▁l	-39
om	-40
▁S	-41
at	-42
ow	-43
▁he	-44
▁in	-45
▁The	-46
▁g	-47
▁n	-48
id	-49
▁=	-50
▁h	-51
▁ha	-52
il	-53
ay	-54
ut	-55
ot	-56
▁H	-57
▁e	-58
▁was	-59
▁is	-60
im	-61
et	-62
ir	-63
ic	-64
hat	-65
ol	-66
▁+	-67
ve	-68
ion	-69
ig	-70
ro	-71
ac	-72
el	-73
rac	-74
▁sa	-75
▁it	-76
st	-77
▁be	-78
ver	-79
▁-	-80
▁that	-81
▁on	-82
frac	-83
}{	-84
▁re	-85
ri	-86
▁we	-87
▁y	-88
▁u	-89
▁I	-90
ent	-91
▁for	-92
▁st	-93
▁are	-94
);	-95
ly	-96
ble	-97
▁A	-98
▁her	-99
▁"	-100
ce	-101
um	-102
▁th	-103
▁L	-104
am	-105
▁so	-106
▁How	-107
ith	-108
▁He	-109
▁*	-110
▁man	-111
▁She	-112
ke	-113
qu	-114
se	-115
oo	-116
▁B	-117
▁P	-118
▁with	-119
ld	-120
ad	-121
ht	-122
uc	-123
pp	-124
▁she	-125
▁many	-126
▁**	-127
ec	-128
▁an	-129
▁do	-130
ul	-131
▁O	-132
▁(	-133
▁They	-134
end	-135
▁$\	-136
▁as	-137
$.	-138
▁M	-139
ore	-140
her	-141
▁pl	-142
▁al	-143
▁le	-144
▁said	-145
▁you	-146
>>	-147
<<	-148
▁day	-149
▁his	-150
▁W	-151
ution	-152
ked	-153
olution	-154
ill	-155
##	-156
ily	-157
blem	-158
roblem	-159
ant	-160
▁r	-161
os	-162
▁On	-163
▁have	-164
ight	-165
ter	-166
un	-167
▁Problem	-168
▁Solution	-169
very	-170
▁ne	-171
ur	-172
--	-173
▁they	-174
ers	-175
ind	-176
if	-177
iv	-178
▁up	-179
▁there	-180
ox	-181
ab	-182
$,	-183
▁can	-184
▁J	-185
▁Lily	-186
ould	-187
▁k	-188
▁at	-189
ound	-190
dot	-191
▁&	-192
▁wh	-193
eg	-194
▁tim	-195
th	-196
▁had	-197
rom	-198
all	-199
uch	-200
▁play	-201
▁F	-202
ake	-203
mat	-204
▁did	-205
ach	-206
ang	-207
rt	-208
▁sp	-209
▁not	-210
ide	-211
),	-212
▁C	-213
are	-214
▁ex	-215
us	-216
▁x	-217
ome	-218
cdot	-219
ack	-220
▁sh	-221
.$	-222
umb	-223
ag	-224
qrt	-225
▁se	-226
▁v	-227
▁mom	-228
tle	-229
sqrt	-230
▁<<	-231
my	-232
▁sm	-233
nt	-234
▁want	-235
raw	-236
▁numb	-237
▁by	-238
▁time	-239
▁E	-240
ive	-241
box	-242
▁or	-243
hen	-244
ry	-245
ain	-246
boxed	-247
",	-248
,$	-249
han	-250
▁all	-251
our	-252
▁happ	-253
ct	-254
▁co	-255
▁lit	-256
("	-257
▁draw	-258
▁but	-259
ine	-260
ook	-261
art	-262
▁from	-263
▁were	-264
▁has	-265
ation	-266
▁\\	-267
▁very	-268
les	-269
▁much	-270
▁int	-271
abel	-272
op	-273
▁tw	-274
▁little	-275
▁will	-276
▁It	-277
▁\[	-278
▁fri	-279
▁j	-280
▁friend	-281
ud	-282
ft	-283
▁li	-284
irc	-285
▁D	-286
▁each	-287
res	-288
▁label	-289
)--	-290
ug	-291
\]	-292
one	-293
ree	-294
▁out	-295
▁big	-296
▁does	-297
ard	-298
ice	-299
▁me	-300
}$	-301
▁lo	-302
ch	-303
▁happy	-304
▁their	-305
est	-306
▁One	-307
▁saw	-308
▁number	-309
▁go	-310
."	-311
oug	-312
));	-313
▁cl	-314
tal	-315
ies	-316
▁com	-317
▁get	-318
▁them	-319
▁Tim	-320
ell	-321
ue	-322
▁ar	-323
▁total	-324
ays	-325
ts	-326
and	-327
ust	-328
!"	-329
red	-330
▁Once	-331
▁then	-332
▁con	-333
("$	-334
ick	-335
▁wor	-336
▁him	-337
▁this	-338
▁equ	-339
)--(	-340
ak	-341
▁than	-342
ars	-343
ved	-344
▁ro	-345
$",	-346
ign	-347
▁two	-348
▁one	-349
angle	-350
▁too	-351
hed	-352
irl	-353
▁ra	-354
iz	-355
ong	-356
▁&=	-357
▁N	-358
}$.	-359
▁girl	-360
▁kn	-361
▁could	-362
^{	-363
ip	-364
ther	-365
▁fe	-366
ark	-367
▁find	-368
▁po	-369
▁pro	-370
ood	-371
te	-372
▁sc	-373
▁upon	-374
((	-375
lo	-376
ist	-377
▁If	-378
▁Th	-379
▁tri	-380
hb	-381
▁per	-382
▁pa	-383
▁bo	-384
▁wanted	-385
right	-386
ie	-387
oll	-388
ich	-389
ure	-390
irst	-391
row	-392
pl	-393
.\]	-394
▁hel	-395
▁ch	-396
ents	-397
▁We	-398
ater	-399
get	-400
ame	-401
▁how	-402
▁Tom	-403
▁##	-404
▁####	-405
mathb	-406
ge	-407
▁more	-408
▁make	-409
mathbf	-410
egin	-411
ird	-412
ks	-413
▁pr	-414
▁fun	-415
begin	-416
▁other	-417
▁what	-418
▁pos	-419
{\	-420
▁when	-421
▁There	-422
▁help	-423
)^	-424
▁went	-425
▁Ben	-426
▁friends	-427
circ	-428
ally	-429
align	-430
ast	-431
ince	-432
ate	-433
out	-434
▁back	-435
▁So	-436
ond	-437
▁would	-438
ax	-439
▁see	-440
rix	-441
▁no	-442
▁R	-443
fore	-444
▁need	-445
ings	-446
▁some	-447
ub	-448
▁$(	-449
ep	-450
▁which	-451
*}	-452
?"	-453
▁But	-454
matrix	-455
xt	-456
ite	-457
=\	-458
▁bec	-459
▁gra	-460
▁bot	-461
▁ad	-462
)(	-463
iled	-464
▁first	-465
fe	-466
gether	-467
▁ab	-468
ect	-469
▁mo	-470
omet	-471
^\	-472
amed	-473
fter	-474
ful	-475
▁val	-476
pmatrix	-477
ult	-478
▁us	-479
▁if	-480
▁In	-481
▁start	-482
side	-483
hing	-484
own	-485
ity	-486
▁like	-487
elt	-488
use	-489
▁around	-490
▁min	-491
▁Then	-492
▁hour	-493
▁smiled	-494
▁ag	-495
▁who	-496
▁Timmy	-497
act	-498
▁ye	-499
▁qu	-500
▁asked	-501
▁What	-502
▁named	-503
arn	-504
so	-505
here	-506
▁pe	-507
You	-508
its	-509
ade	-510
▁new	-511
▁squ	-512
ss	-513
▁[	-514
asy	-515
▁boy	-516
cos	-517
ial	-518
▁G	-519
▁loo	-520
▁un	-521
way	-522
▁dec	-523
em	-524
▁three	-525
ous	-526
▁your	-527
▁loved	-528
pi	-529
▁cost	-530
▁together	-531
ress	-532
▁take	-533
▁looked	-534
ace	-535
▁toy	-536
▁every	-537
▁felt	-538
ause	-539
▁integ	-540
sin	-541
}\	-542
▁made	-543
}.$	-544
line	-545
ought	-546
▁poin	-547
hes	-548
▁into	-549
▁fl	-550
ile	-551
▁bird	-552
ase	-553
▁col	-554
▁away	-555
ount	-556
left	-557
ible	-558
▁car	-559
ia	-560
▁old	-561
ng	-562
ess	-563
▁giv	-564
▁somet	-565
,-	-566
ort	-567
▁equation	-568
▁bu	-569
we	-570
▁rem	-571
▁Let	-572
ots	-573
▁both	-574
ara	-575
per	-576
,"	-577
▁Jo	-578
ited	-579
▁div	-580
ave	-581
pt	-582
ough	-583
▁bl	-584
▁look	-585
ided	-586
▁sha	-587
ans	-588
▁wal	-589
imes	-590
▁square	-591
▁inc	-592
ors	-593
▁started	-594
▁sec	-595
▁put	-596
ish	-597
▁\[\	-598
▁minut	-599
ass	-600
▁Since	-601
▁park	-602
▁stud	-603
age	-604
▁gre	-605
▁home	-606
▁im	-607
▁real	-608
▁bet	-609
av	-610
)$	-611
▁found	-612
▁am	-613
oud	-614
ence	-615
▁exc	-616
▁something	-617
▁en	-618
▁about	-619
▁dog	-620
▁ran	-621
erm	-622
▁because	-623
ild	-624
▁again	-625
ple	-626
▁$<<	-627
▁left	-628
▁br	-629
▁know	-630
▁You	-631
ions	-632
aug	-633
ared	-634
pped	-635
old	-636
▁sl	-637
▁ball	-638
ting	-639
▁te	-640
▁any	-641
ob	-642
ven	-643
▁hours	-644
▁its	-645
fere	-646
▁long	-647
▁must	-648
ise	-649
▁tr	-650
▁water	-651
▁dif	-652
ny	-653
▁sum	-654
▁app	-655
als	-656
▁second	-657
od	-658
ons	-659
other	-660
▁z	-661
ouse	-662
ck	-663
▁When	-664
over	-665
▁sad	-666
ople	-667
▁down	-668
akes	-669
▁minutes	-670
}}	-671
ize	-672
▁only	-673
▁got	-674
▁wee	-675
▁over	-676
▁pair	-677
▁value	-678
▁Mom	-679
▁form	-680
▁good	-681
▁people	-682
oney	-683
▁de	-684
▁An	-685
▁box	-686
ph	-687
▁years	-688
ultip	-689
▁playing	-690
▁posit	-691
▁This	-692
wer	-693
▁hug	-694
▁eat	-695
▁area	-696
pen	-697
na	-698
the	-699
▁differe	-700
▁after	-701
▁says	-702
▁also	-703
ff	-704
▁things	-705
(-	-706
ll	-707
ary	-708
▁numbers	-709
ew	-710
ta	-711
▁excited	-712
▁cont	-713
▁ang	-714
▁let	-715
▁small	-716
_{	-717
▁money	-718
cy	-719
▁ke	-720
▁fact	-721
ap	-722
ways	-723
▁Thus	-724
▁Sam	-725
▁Therefore	-726
▁run	-727
▁took	-728
hn	-729
▁came	-730
▁positive	-731
uck	-732
=<<	-733
▁show	-734
text	-735
lect	-736
▁book	-737
▁decided	-738
urn	-739
▁ans	-740
▁tree	-741
▁K	-742
times	-743
▁poss	-744
ment	-745
▁pre	-746
▁dig	-747
ance	-748
iles	-749
udd	-750
▁always	-751
ides	-752
▁multip	-753
▁cat	-754
▁such	-755
▁gr	-756
me	-757
▁spec	-758
able	-759
▁care	-760
▁tra	-761
ngth	-762
AB	-763
▁students	-764
press	-765
▁buy	-766
theta	-767
▁add	-768
lf	-769
▁triangle	-770
ire	-771
▁part	-772
▁res	-773
ted	-774
cc	-775
▁my	-776
▁pic	-777
▁red	-778
▁liked	-779
▁dad	-780
▁learn	-781
▁circ	-782
▁right	-783
▁mon	-784
▁wr	-785
▁end	-786
▁feel	-787
▁times	-788
▁dis	-789
▁scared	-790
▁sw	-791
day	-792
▁Sara	-793
▁use	-794
king	-795
▁read	-796
▁John	-797
▁these	-798
▁sk	-799
ged	-800
▁str	-801
cle	-802
▁hand	-803
▁Her	-804
ty	-805
▁thought	-806
▁answer	-807
▁term	-808
▁didn	-809
ps	-810
▁Jack	-811
▁where	-812
og	-813
▁cha	-814
ving	-815
uct	-816
ract	-817
▁off	-818
▁house	-819
ose	-820
▁even	-821
▁Max	-822
}.\]	-823
▁toys	-824
▁length	-825
▁doll	-826
▁$$	-827
▁outside	-828
▁che	-829
ets	-830
nder	-831
▁From	-832
▁possible	-833
▁call	-834
▁Find	-835
ical	-836
port	-837
▁less	-838
▁sur	-839
▁four	-840
▁now	-841
▁gave	-842
ues	-843
ane	-844
dd	-845
}}{	-846
▁sun	-847
udden	-848
▁dist	-849
ollow	-850
ord	-851
▁same	-852
vel	-853
▁just	-854
▁special	-855
▁lar	-856
ink	-857
orn	-858
▁integer	-859
▁laug	-860
▁week	-861
▁And	-862
▁spend	-863
▁comm	-864
▁dot	-865
▁days	-866
▁expl	-867
ix	-868
equ	-869
▁fin	-870
▁mommy	-871
uddenly	-872
▁follow	-873
▁side	-874
▁comp	-875
ered	-876
ower	-877
▁His	-878
▁room	-879
ens	-880
ray	-881
▁gives	-882
wn	-883
▁cu	-884
igh	-885
=(	-886
▁inside	-887
▁different	-888
▁wa	-889
▁/	-890
▁units	-891
▁thr	-892
▁wat	-893
▁knew	-894
).	-895
ull	-896
ath	-897
▁[/	-898
▁Anna	-899
overline	-900
ween	-901
▁tre	-902
▁prod	-903
▁equal	-904
loor	-905
▁integers	-906
▁Every	-907
▁anim	-908
arm	-909
ards	-910
▁don	-911
▁After	-912
bb	-913
bin	-914
ular	-915
▁between	-916
▁As	-917
oin	-918
pm	-919
rat	-920
ma	-921
pe	-922
▁line	-923
cycle	-924
▁open	-925
▁through	-926
▁miles	-927
▁way	-928
▁liv	-929
▁told	-930
oc	-931
▁feet	-932
▁point	-933
elf	-934
▁inter	-935
▁divis	-936
ory	-937
▁under	-938
▁work	-939
▁our	-940
arrow	-941
▁never	-942
\\	-943
▁try	-944
ber	-945
ump	-946
aking	-947
▁points	-948
▁careful	-949
ated	-950
ied	-951
▁child	-952
vent	-953
▁cre	-954
)*	-955
▁U	-956
▁For	-957
▁har	-958
ces	-959
ates	-960
ices	-961
ounds	-962
idth	-963
}{\	-964
dy	-965
orry	-966
▁Suddenly	-967
ins	-968
upp	-969
ures	-970
▁couldn	-971
},$	-972
ely	-973
ute	-974
▁â	-975
▁before	-976
ility	-977
(\	-978
▁sides	-979
▁cle	-980
▁should	-981
ral	-982
▁i	-983
▁heard	-984
▁played	-985
▁list	-986
▁Bob	-987
▁sn	-988
▁sim	-989
▁proud	-990
▁called	-991
▁fam	-992
▁Al	-993
▁set	-994
▁tried	-995
▁cook	-996
}$,	-997
▁ho	-998
▁still	-999
ren	-1000
iss	-1001
▁unt	-1002
ction	-1003
▁sorry	-1004
quad	-1005
ail	-1006
ages	-1007
ds	-1008
▁import	-1009
der	-1010
ime	-1011
)=	-1012
+\	-1013
▁until	-1014
$",(	-1015
▁blue	-1016
▁next	-1017
▁used	-1018
▁rad	-1019
ool	-1020
▁<	-1021
▁half	-1022
width	-1023
cks	-1024
ient	-1025
▁fill	-1026
▁month	-1027
▁been	-1028
▁year	-1029
)/	-1030
▁hugged	-1031
orm	-1032
▁cent	-1033
▁pi	-1034
▁clos	-1035
▁kind	-1036
gs	-1037
▁means	-1038
ious	-1039
▁great	-1040
▁ob	-1041
▁prob	-1042
▁Mia	-1043
$?	-1044
▁gl	-1045
oy	-1046
▁fish	-1047
▁mar	-1048
▁better	-1049
▁met	-1050
▁pay	-1051
▁pret	-1052
ank	-1053
▁circle	-1054
▁while	-1055
▁books	-1056
by	-1057
ative	-1058
▁food	-1059
▁probab	-1060
{(	-1061
▁gard	-1062
▁best	-1063
▁animals	-1064
▁$-	-1065
▁remain	-1066
pr	-1067
▁bre	-1068
▁garden	-1069
▁To	-1070
▁give	-1071
ram	-1072
Yes	-1073
equiv	-1074
ames	-1075
▁sub	-1076
aut	-1077
ange	-1078
▁pol	-1079
▁going	-1080
riangle	-1081
▁bear	-1082
ale	-1083
▁come	-1084
▁di	-1085
▁given	-1086
},	-1087
▁sat	-1088
▁common	-1089
BC	-1090
▁pain	-1091
iny	-1092
ote	-1093
iel	-1094
▁{	-1095
tan	-1096
▁values	-1097
}=\	-1098
led	-1099
▁amount	-1100
▁bel	-1101
▁inches	-1102
▁family	-1103
ru	-1104
▁nice	-1105
Th	-1106
▁V	-1107
▁Ex	-1108
linewidth	-1109
▁solution	-1110
▁say	-1111
▁store	-1112
▁bag	-1113
▁ways	-1114
self	-1115
▁probability	-1116
▁factor	-1117
▁thanked	-1118
ched	-1119
▁sell	-1120
nce	-1121
▁bra	-1122
dots	-1123
az	-1124
▁ac	-1125
▁learned	-1126
▁Luc	-1127
pha	-1128
ition	-1129
▁beaut	-1130
owers	-1131
▁sky	-1132
▁laughed	-1133
▁cand	-1134
gan	-1135
eter	-1136
ried	-1137
▁chan	-1138
ric	-1139
▁rest	-1140
▁class	-1141
ished	-1142
▁(-	-1143
▁pen	-1144
▁earn	-1145
▁turn	-1146
▁radi	-1147
▁express	-1148
▁reg	-1149
dfrac	-1150
▁blo	-1151
▁needs	-1152
be	-1153
ves	-1154
▁love	-1155
▁ve	-1156
ning	-1157
▁fle	-1158
chool	-1159
▁digit	-1160
▁high	-1161
▁third	-1162
Let	-1163
ove	-1164
▁perf	-1165
▁larg	-1166
▁pounds	-1167
▁hur	-1168
▁terms	-1169
▁}	-1170
▁twice	-1171
▁sy	-1172
iful	-1173
▁rec	-1174
▁stay	-1175
▁jump	-1176
▁disc	-1177
▁beautiful	-1178
It	-1179
▁wind	-1180
triangle	-1181
▁lived	-1182
▁own	-1183
▁Lucy	-1184
{-	-1185
▁lots	-1186
eces	-1187
})	-1188
lying	-1189
}=	-1190
▁mat	-1191
▁last	-1192
We	-1193
bles	-1194
▁hard	-1195
▁explore	-1196
",(	-1197
ations	-1198
ized	-1199
▁base	-1200
▁pieces	-1201
▁ver	-1202
▁share	-1203
▁count	-1204
▁plant	-1205
▁pick	-1206
ised	-1207
alle	-1208
ten	-1209
▁keep	-1210
oes	-1211
▁comple	-1212
)+	-1213
▁mag	-1214
illy	-1215
▁place	-1216
▁listen	-1217
oot	-1218
▁being	-1219
ator	-1220
▁sol	-1221
▁cal	-1222
▁clim	-1223
ne	-1224
log	-1225
igin	-1226
aves	-1227
▁ground	-1228
thing	-1229
▁clean	-1230
▁product	-1231
▁fore	-1232
▁meas	-1233
▁children	-1234
▁walked	-1235
€™	-1236
▁rel	-1237
▁At	-1238
▁prime	-1239
ired	-1240
▁deg	-1241
▁repl	-1242
▁pict	-1243
▁Now	-1244
▁loud	-1245
▁cm	-1246
▁Each	-1247
▁sto	-1248
▁mean	-1249
anc	-1250
▁ey	-1251
&&	-1252
▁del	-1253
▁game	-1254
▁takes	-1255
▁stick	-1256
What	-1257
▁ide	-1258
▁inf	-1259
aught	-1260
air	-1261
▁bus	-1262
▁fast	-1263
▁light	-1264
▁ph	-1265
ady	-1266
$-	-1267
pmod	-1268
▁lot	-1269
io	-1270
▁bed	-1271
ids	-1272
▁St	-1273
binom	-1274
pect	-1275
▁That	-1276
^{-	-1277
▁school	-1278
▁soon	-1279
▁digits	-1280
ters	-1281
▁safe	-1282
▁flew	-1283
▁brave	-1284
▁surpr	-1285
▁dri	-1286
▁des	-1287
iced	-1288
▁bad	-1289
uff	-1290
▁rat	-1291
▁roots	-1292
▁bas	-1293
kay	-1294
▁dir	-1295
▁dr	-1296
▁origin	-1297
▁another	-1298
ever	-1299
▁multiple	-1300
▁bought	-1301
ume	-1302
▁kept	-1303
▁|	-1304
rown	-1305
▁picked	-1306
▁looking	-1307
▁angle	-1308
allest	-1309
rrow	-1310
▁head	-1311
▁since	-1312
plif	-1313
▁yell	-1314
▁cookies	-1315
)$.	-1316
▁apples	-1317
▁brother	-1318
▁contain	-1319
▁Sp	-1320
▁cry	-1321
▁cub	-1322
▁distance	-1323
▁important	-1324
▁flowers	-1325
ummy	-1326
((-	-1327
▁(\	-1328
oup	-1329
resent	-1330
▁graph	-1331
▁green	-1332
ined	-1333
▁walking	-1334
▁em	-1335
▁most	-1336
oose	-1337
▁may	-1338
ines	-1339
▁makes	-1340
hank	-1341
▁rep	-1342
▁smallest	-1343
▁remaining	-1344
▁def	-1345
▁hands	-1346
▁kit	-1347
▁climb	-1348
▁divisible	-1349
cess	-1350
ift	-1351
▁vol	-1352
▁walk	-1353
▁By	-1354
▁acc	-1355
▁act	-1356
CD	-1357
sh	-1358
arent	-1359
▁First	-1360
▁ser	-1361
▁fract	-1362
de	-1363
▁sand	-1364
ike	-1365
inder	-1366
▁collect	-1367
room	-1368
▁pass	-1369
ib	-1370
▁nodd	-1371
▁angry	-1372
▁quick	-1373
▁plan	-1374
▁opened	-1375
▁build	-1376
▁watch	-1377
▁near	-1378
▁happen	-1379
to	-1380
▁top	-1381
lud	-1382
▁cur	-1383
▁least	-1384
ating	-1385
▁hurt	-1386
ats	-1387
ows	-1388
,\	-1389
oice	-1390
sc	-1391
ities	-1392
No	-1393
▁shiny	-1394
▁nodded	-1395
iting	-1396
oon	-1397
}.	-1398
That	-1399
▁eyes	-1400
▁order	-1401
▁Com	-1402
race	-1403
▁here	-1404
▁idea	-1405
weet	-1406
▁Jane	-1407
▁advent	-1408
▁hold	-1409
▁-\	-1410
▁door	-1411
)$,	-1412
▁aver	-1413
els	-1414
▁feeling	-1415
imum	-1416
▁cars	-1417
▁problem	-1418
uring	-1419
▁size	-1420
aces	-1421
ries	-1422
▁roll	-1423
joy	-1424
▁Mommy	-1425
▁ear	-1426
ments	-1427
▁paper	-1428
ner	-1429
▁words	-1430
ron	-1431
ject	-1432
▁ate	-1433
▁pretty	-1434
ian	-1435
▁exam	-1436
▁rabb	-1437
=-	-1438
xy	-1439
kes	-1440
▁remem	-1441
▁noticed	-1442
▁cas	-1443
▁pers	-1444
▁sold	-1445
▁face	-1446
▁tell	-1447
The	-1448
▁world	-1449
▁rain	-1450
▁table	-1451
ross	-1452
ather	-1453
▁pages	-1454
▁factors	-1455
▁able	-1456
▁Express	-1457
more	-1458
▁night	-1459
tain	-1460
▁bro	-1461
▁mid	-1462
▁five	-1463
izz	-1464
▁Dad	-1465
}(	-1466
agon	-1467
▁noise	-1468
▁stopped	-1469
▁trees	-1470
▁quad	-1471
▁rock	-1472
▁air	-1473
}}$.	-1474
▁write	-1475
▁radius	-1476
▁replied	-1477
▁eg	-1478
▁score	-1479
▁enjoy	-1480
▁wants	-1481
▁dollars	-1482
▁tick	-1483
▁dro	-1484
▁black	-1485
▁average	-1486
▁strong	-1487
ret	-1488
ually	-1489
gy	-1490
▁forest	-1491
▁parent	-1492
▁truck	-1493
▁Joe	-1494
ope	-1495
▁bit	-1496
▁tall	-1497
▁quickly	-1498
▁making	-1499
isf	-1500
▁white	-1501
▁Sarah	-1502
▁ref	-1503
yn	-1504
▁sing	-1505
▁Fin	-1506
▁perfect	-1507
ident	-1508
▁ever	-1509
▁underst	-1510
,\]	-1511
▁warm	-1512
dir	-1513
▁vis	-1514
poin	-1515
▁full	-1516
▁satisf	-1517
▁ele	-1518
▁ent	-1519
ordin	-1520
▁sure	-1521
This	-1522
▁det	-1523
▁far	-1524
▁cons	-1525
▁Em	-1526
▁incre	-1527
▁>	-1528
▁move	-1529
vers	-1530
▁pack	-1531
▁spent	-1532
▁blocks	-1533
▁wond	-1534
ee	-1535
rightarrow	-1536
ega	-1537
und	-1538
▁Sue	-1539
▁marbles	-1540
ere	-1541
&=	-1542
▁gu	-1543
hy	-1544
▁smile	-1545
▁Sim	-1546
olly	-1547
Arrow	-1548
ither	-1549
▁ice	-1550
▁travel	-1551
▁closer	-1552
),$	-1553
).$	-1554
ield	-1555
▁amaz	-1556
-\	-1557
▁color	-1558
omega	-1559
ear	-1560
rib	-1561
▁gall	-1562
ster	-1563
cent	-1564
leep	-1565
▁farm	-1566
where	-1567
))	-1568
bl	-1569
lease	-1570
rees	-1571
▁fraction	-1572
▁largest	-1573
▁gen	-1574
▁sit	-1575
▁became	-1576
▁rabbit	-1577
▁rect	-1578
▁fly	-1579
▁butter	-1580
▁dress	-1581
Thank	-1582
urs	-1583
▁cards	-1584
alpha	-1585
▁voice	-1586
▁needed	-1587
▁yellow	-1588
▁everyone	-1589
▁Y	-1590
stit	-1591
▁bright	-1592
ists	-1593
▁Jen	-1594
▁den	-1595
Right	-1596
▁cut	-1597
▁tow	-1598
▁Mar	-1599
▁function	-1600
AC	-1601
ais	-1602
▁expression	-1603
ym	-1604
▁bottle	-1605
▁din	-1606
▁leaves	-1607
iding	-1608
▁having	-1609
=$	-1610
ilar	-1611
▁boxes	-1612
▁story	-1613
▁sequ	-1614
▁rece	-1615
▁height	-1616
▁showed	-1617
ife	-1618
▁contin	-1619
Rightarrow	-1620
ier	-1621
▁fro	-1622
aring	-1623
▁kids	-1624
▁non	-1625
▁using	-1626
▁tal	-1627
▁ret	-1628
▁team	-1629
mer	-1630
ila	-1631
▁watched	-1632
▁Mr	-1633
▁&\	-1634
▁fire	-1635
▁mus	-1636
qquad	-1637
▁birds	-1638
▁large	-1639
▁pat	-1640
ashed	-1641
▁occ	-1642
ality	-1643
ature	-1644
▁curi	-1645
▁Finally	-1646
▁Hence	-1647
ached	-1648
▁ind	-1649
)}	-1650
ream	-1651
▁weeks	-1652
ider	-1653
..	-1654
val	-1655
▁grand	-1656
▁includ	-1657
▁price	-1658
▁power	-1659
pes	-1660
omial	-1661
▁difference	-1662
axis	-1663
▁formul	-1664
▁pur	-1665
▁const	-1666
▁Un	-1667
ung	-1668
▁oun	-1669
▁slide	-1670
▁degrees	-1671
▁done	-1672
ms	-1673
▁inst	-1674
▁stop	-1675
ys	-1676
)}{	-1677
▁enough	-1678
▁okay	-1679
=$<<	-1680
stem	-1681
▁Ch	-1682
Then	-1683
▁cake	-1684
▁land	-1685
▁solutions	-1686
▁grow	-1687
▁exp	-1688
^{\	-1689
ctor	-1690
app	-1691
▁shout	-1692
▁paint	-1693
▁fav	-1694
eta	-1695
▁six	-1696
▁spe	-1697
▁name	-1698
ainder	-1699
mb	-1700
gra	-1701
▁Jim	-1702
▁curious	-1703
angles	-1704
▁person	-1705
▁interse	-1706
up	-1707
tern	-1708
▁seen	-1709
▁those	-1710
▁understand	-1711
ils	-1712
rel	-1713
▁att	-1714
▁ext	-1715
▁games	-1716
ircle	-1717
▁clot	-1718
bye	-1719
▁Re	-1720
▁quest	-1721
*.	-1722
▁All	-1723
ories	-1724
▁wait	-1725
▁costs	-1726
ills	-1727
▁sign	-1728
▁parents	-1729
▁pull	-1730
▁choose	-1731
▁began	-1732
▁divided	-1733
▁pairs	-1734
▁really	-1735
▁la	-1736
▁case	-1737
▁catch	-1738
▁prin	-1739
▁inv	-1740
▁why	-1741
▁ratio	-1742
chen	-1743
rent	-1744
▁equations	-1745
▁mum	-1746
▁wood	-1747
let	-1748
▁mod	-1749
ual	-1750
icks	-1751
▁think	-1752
Look	-1753
ola	-1754
ratic	-1755
▁remainder	-1756
▁divide	-1757
cul	-1758
rew	-1759
aisy	-1760
▁ste	-1761
▁measure	-1762
▁candy	-1763
▁stand	-1764
▁Q	-1765
▁vert	-1766
▁sound	-1767
▁mother	-1768
▁eggs	-1769
ugg	-1770
▁break	-1771
▁ty	-1772
▁supp	-1773
ost	-1774
▁Spot	-1775
▁mess	-1776
▁Sally	-1777
▁flower	-1778
Can	-1779
omes	-1780
med	-1781
▁boat	-1782
eff	-1783
acher	-1784
▁soft	-1785
▁kitchen	-1786
▁few	-1787
▁thing	-1788
▁return	-1789
ips	-1790
floor	-1791
▁goodbye	-1792
▁el	-1793
▁fell	-1794
▁quadratic	-1795
▁bun	-1796
▁volume	-1797
▁ounces	-1798
▁respect	-1799
▁hot	-1800
▁worked	-1801
▁arri	-1802
orite	-1803
▁Mary	-1804
▁.	-1805
▁exact	-1806
▁ri	-1807
".	-1808
ued	-1809
▁fix	-1810
▁Lila	-1811
▁sequence	-1812
▁forg	-1813
▁hole	-1814
▁lost	-1815
▁$$\	-1816
▁Car	-1817
▁grass	-1818
▁group	-1819
▁mark	-1820
▁swim	-1821
▁gets	-1822
mation	-1823
▁running	-1824
▁original	-1825
▁lesson	-1826
▁anymore	-1827
}}.$	-1828
▁plane	-1829
▁cup	-1830
cm	-1831
▁odd	-1832
oring	-1833
▁shown	-1834
▁floor	-1835
▁gallons	-1836
overrightarrow	-1837
▁pie	-1838
ynomial	-1839
▁Can	-1840
▁fair	-1841
ants	-1842
▁helped	-1843
▁polynomial	-1844
dig	-1845
ges	-1846
▁med	-1847
▁win	-1848
▁pizz	-1849
▁system	-1850
▁dark	-1851
▁sweet	-1852
▁jumped	-1853
▁hy	-1854
bbed	-1855
olog	-1856
▁happened	-1857
uce	-1858
ball	-1859
omin	-1860
ics	-1861
ience	-1862
ister	-1863
▁sleep	-1864
|\	-1865
▁partic	-1866
aybe	-1867
cept	-1868
▁well	-1869
digit	-1870
▁reached	-1871
]{	-1872
▁cool	-1873
▁might	-1874
▁thin	-1875
▁center	-1876
▁ready	-1877
▁Sub	-1878
▁bow	-1879
AD	-1880
hind	-1881
▁pus	-1882
ger	-1883
▁Do	-1884
▁prom	-1885
▁X	-1886
▁pond	-1887
▁trip	-1888
face	-1889
▁above	-1890
▁gener	-1891
▁simplif	-1892
▁fru	-1893
ef	-1894
ses	-1895
▁either	-1896
▁test	-1897
▁picture	-1898
▁Daisy	-1899
arc	-1900
▁grabbed	-1901
▁max	-1902
▁determ	-1903
▁behind	-1904
▁balls	-1905
▁favorite	-1906
Mom	-1907
▁song	-1908
▁adventure	-1909
▁wall	-1910
▁Billy	-1911
▁party	-1912
▁coming	-1913
▁shouted	-1914
▁without	-1915
▁step	-1916
▁combin	-1917
▁current	-1918
aby	-1919
rab	-1920
▁var	-1921
point	-1922
▁lady	-1923
▁looks	-1924
▁morn	-1925
la	-1926
▁sees	-1927
▁himself	-1928
▁Fr	-1929
▁Note	-1930
▁wonder	-1931
▁exactly	-1932
▁unitsize	-1933
▁shir	-1934
▁morning	-1935
▁percent	-1936
▁smaller	-1937
▁elect	-1938
▁filled	-1939
reed	-1940
ively	-1941
▁path	-1942
▁doing	-1943
▁worry	-1944
▁\]	-1945
▁ord	-1946
bra	-1947
para	-1948
▁realized	-1949
▁Z	-1950
▁age	-1951
pping	-1952
▁root	-1953
▁follows	-1954
▁whole	-1955
▁triangles	-1956
▁glad	-1957
▁touch	-1958
▁cold	-1959
▁snow	-1960
▁hair	-1961
ert	-1962
▁char	-1963
▁foot	-1964
▁Everyone	-1965
ABC	-1966
▁join	-1967
oun	-1968
▁dire	-1969
▁solve	-1970
▁during	-1971
▁fig	-1972
aster	-1973
▁penc	-1974
▁subt	-1975
▁below	-1976
lfloor	-1977
▁getting	-1978
▁\[(	-1979
▁close	-1980
▁butterf	-1981
▁pot	-1982
▁spl	-1983
sum	-1984
▁Ear	-1985
▁cond	-1986
▁squares	-1987
cd	-1988
ero	-1989
ying	-1990
rfloor	-1991
▁change	-1992
▁cor	-1993
▁slow	-1994
ude	-1995
▁$|	-1996
▁ed	-1997
▁hopped	-1998
ads	-1999
met	-2000
▁teacher	-2001
)\	-2002
▁gas	-2003
Circle	-2004
}+	-2005
oke	-2006
▁mouse	-2007
▁beg	-2008
▁pupp	-2009
▁ax	-2010
▁tired	-2011
▁ca	-2012
black	-2013
▁multiply	-2014
icy	-2015
▁kil	-2016
▁tail	-2017
▁Molly	-2018
▁Tommy	-2019
▁mil	-2020
▁dogs	-2021
▁trying	-2022
Don	-2023
▁calcul	-2024
NE	-2025
SE	-2026
▁today	-2027
▁coordin	-2028
▁greater	-2029
oons	-2030
▁Gra	-2031
▁won	-2032
▁Jill	-2033
▁note	-2034
▁increas	-2035
▁denomin	-2036
ches	-2037
land	-2038
▁fur	-2039
ium	-2040
▁Wh	-2041
sing	-2042
▁miss	-2043
▁meters	-2044
▁example	-2045
ash	-2046
▁formula	-2047
▁sister	-2048
▁spot	-2049
▁followed	-2050
any	-2051
rag	-2052
▁waved	-2053
▁su	-2054
man	-2055
▁following	-2056
wh	-2057
▁colors	-2058
▁surprise	-2059
ecause	-2060
▁others	-2061
▁brought	-2062
▁seconds	-2063
▁represent	-2064
▁herself	-2065
▁finished	-2066
▁James	-2067
inct	-2068
▁deep	-2069
▁Le	-2070
▁held	-2071
▁weigh	-2072
▁funny	-2073
pper	-2074
▁round	-2075
▁job	-2076
▁dinner	-2077
Wow	-2078
▁bask	-2079
▁anything	-2080
▁Comp	-2081
▁yummy	-2082
▁rememb	-2083
▁cups	-2084
▁everything	-2085
not	-2086
outh	-2087
▁field	-2088
▁arr	-2089
▁hig	-2090
▁whe	-2091
▁Earth	-2092
▁speed	-2093
▁plants	-2094
olving	-2095
▁shoes	-2096
▁hop	-2097
▁paid	-2098
▁bunny	-2099
▁tickets	-2100
▁shar	-2101
▁weight	-2102
ken	-2103
key	-2104
dashed	-2105
▁young	-2106
▁bug	-2107
oss	-2108
ects	-2109
▁rot	-2110
▁delic	-2111
ocol	-2112
▁cell	-2113
▁trans	-2114
co	-2115
▁Con	-2116
▁writ	-2117
▁greatest	-2118
▁dep	-2119
▁frog	-2120
▁wrong	-2121
▁result	-2122
elly	-2123
▁bags	-2124
amp	-2125
▁slices	-2126
ormation	-2127
▁arrived	-2128
ward	-2129
▁seg	-2130
anges	-2131
▁organ	-2132
▁carefully	-2133
▁Tw	-2134
▁months	-2135
ina	-2136
▁nec	-2137
▁across	-2138
mon	-2139
▁reach	-2140
▁surface	-2141
ific	-2142
}+\	-2143
▁ge	-2144
▁tem	-2145
▁along	-2146
▁region	-2147
▁chocol	-2148
iet	-2149
▁cr	-2150
)--(-	-2151
min	-2152
Since	-2153
effic	-2154
▁However	-2155
alth	-2156
▁free	-2157
▁ride	-2158
▁swing	-2159
▁happily	-2160
▁cried	-2161
ones	-2162
used	-2163
▁cloud	-2164
ighb	-2165
erest	-2166
▁chair	-2167
▁clothes	-2168
uffy	-2169
▁With	-2170
▁distinct	-2171
▁lun	-2172
▁pet	-2173
▁denominator	-2174
uts	-2175
▁pop	-2176
▁cream	-2177
▁pictures	-2178
ients	-2179
▁Benny	-2180
▁neighb	-2181
▁imp	-2182
▁pract	-2183
▁interest	-2184
▁corn	-2185
▁proper	-2186
▁coeffic	-2187
▁remembered	-2188
▁loc	-2189
zz	-2190
ead	-2191
ling	-2192
ming	-2193
▁cy	-2194
anger	-2195
▁taking	-2196
▁works	-2197
▁longer	-2198
▁addition	-2199
eddy	-2200
▁bat	-2201
uting	-2202
▁enjoyed	-2203
▁cho	-2204
▁ten	-2205
▁life	-2206
▁continued	-2207
▁train	-2208
▁pretend	-2209
arch	-2210
▁butterfly	-2211
▁bar	-2212
ello	-2213
▁neg	-2214
▁rectangle	-2215
array	-2216
▁requ	-2217
cha	-2218
▁hor	-2219
▁agreed	-2220
orem	-2221
▁ask	-2222
▁brown	-2223
▁angles	-2224
ldots	-2225
▁hear	-2226
▁save	-2227
ucks	-2228
▁yes	-2229
velop	-2230
▁else	-2231
sp	-2232
ional	-2233
▁music	-2234
ora	-2235
▁lay	-2236
ouble	-2237
▁runs	-2238
}\]	-2239
▁Amy	-2240
ser	-2241
▁maximum	-2242
real	-2243
▁surprised	-2244
▁bring	-2245
Hello	-2246
▁someone	-2247
▁carry	-2248
▁lines	-2249
▁wished	-2250
ason	-2251
▁likes	-2252
dle	-2253
▁wonderful	-2254
▁milk	-2255
yt	-2256
▁living	-2257
)..	-2258
▁information	-2259
▁“	-2260
osp	-2261
Thus	-2262
▁sal	-2263
for	-2264
▁turned	-2265
▁finally	-2266
▁inequ	-2267
▁friendly	-2268
▁lion	-2269
.)	-2270
▁rese	-2271
▁fourth	-2272
.$$	-2273
vie	-2274
▁ju	-2275
▁please	-2276
▁produc	-2277
▁cray	-2278
▁tight	-2279
▁NE	-2280
▁race	-2281
▁beach	-2282
▁broken	-2283
iver	-2284
▁hat	-2285
▁past	-2286
▁basket	-2287
▁questions	-2288
▁moment	-2289
▁minimum	-2290
▁present	-2291
▁belie	-2292
ney	-2293
▁fil	-2294
▁hung	-2295
aterial	-2296
ton	-2297
▁Cl	-2298
less	-2299
▁cour	-2300
▁pink	-2301
▁quar	-2302
▁laugh	-2303
▁window	-2304
▁drink	-2305
▁obtain	-2306
▁fall	-2307
▁legs	-2308
▁visit	-2309
▁baby	-2310
▁Fl	-2311
▁ow	-2312
ergy	-2313
irrel	-2314
▁These	-2315
▁leave	-2316
▁complex	-2317
▁q	-2318
ork	-2319
▁Sc	-2320
ateral	-2321
$$	-2322
NW	-2323
ama	-2324
▁ass	-2325
▁shop	-2326
▁pizza	-2327
ict	-2328
▁gone	-2329
▁prov	-2330
▁Mark	-2331
▁explain	-2332
▁card	-2333
▁pig	-2334
imeter	-2335
▁spends	-2336
▁art	-2337
▁squirrel	-2338
▁activ	-2339
vious	-2340
▁hill	-2341
)=\	-2342
irth	-2343
▁cube	-2344
▁gent	-2345
▁cannot	-2346
▁Be	-2347
▁coordinates	-2348
ese	-2349
sec	-2350
mark	-2351
▁fox	-2352
▁oranges	-2353
gcd	-2354
▁hum	-2355
}^	-2356
eth	-2357
▁$(-	-2358
ext	-2359
meric	-2360
▁apple	-2361
▁prof	-2362
▁puppy	-2363
)^{	-2364
▁ABC	-2365
}}.\]	-2366
▁cla	-2367
▁final	-2368
▁wet	-2369
+(	-2370
▁cans	-2371
▁receiv	-2372
tsize	-2373
▁figure	-2374
▁forgot	-2375
▁magn	-2376
▁choices	-2377
stituting	-2378
▁sometimes	-2379
▁begin	-2380
▁delicious	-2381
ze	-2382
iod	-2383
▁material	-2384
▁vertices	-2385
▁dolls	-2386
▁farmer	-2387
▁minute	-2388
▁danc	-2389
▁birth	-2390
▁pencils	-2391
tom	-2392
beta	-2393
eds	-2394
ational	-2395
ountain	-2396
There	-2397
▁Jimmy	-2398
▁sandw	-2399
▁smell	-2400
▁Compute	-2401
▁negative	-2402
ready	-2403
▁heav	-2404
▁chocolate	-2405
imal	-2406
▁buys	-2407
▁Because	-2408
▁castle	-2409
ilateral	-2410
}}$	-2411
cl	-2412
round	-2413
▁already	-2414
ises	-2415
▁leg	-2416
▁Grand	-2417
▁Americ	-2418
▁faster	-2419
▁respectively	-2420
)*(	-2421
cdots	-2422
▁goes	-2423
▁throw	-2424
▁strange	-2425
gray	-2426
▁check	-2427
▁amazing	-2428
▁town	-2429
▁scary	-2430
▁space	-2431
▁higher	-2432
▁balloon	-2433
▁complete	-2434
▁bike	-2435
▁temper	-2436
ness	-2437
▁jar	-2438
▁tast	-2439
ontsize	-2440
▁finish	-2441
▁subtract	-2442
▁mill	-2443
▁larger	-2444
▁reflect	-2445
▁conf	-2446
▁course	-2447
▁energy	-2448
▁bottles	-2449
SW	-2450
com	-2451
ery	-2452
iqu	-2453
▁SW	-2454
▁parab	-2455
▁orange	-2456
ior	-2457
▁separa	-2458
▁triple	-2459
▁row	-2460
▁meet	-2461
▁whose	-2462
▁stayed	-2463
ored	-2464
ults	-2465
▁Jan	-2466
▁Just	-2467
▁piece	-2468
▁stars	-2469
▁ru	-2470
▁bowl	-2471
racting	-2472
▁animal	-2473
)-	-2474
).\]	-2475
ralle	-2476
▁dream	-2477
▁paralle	-2478
▁regular	-2479
scale	-2480
▁boys	-2481
▁cong	-2482
▁climbed	-2483
▁towards	-2484
\%	-2485
],	-2486
}\|	-2487
oid	-2488
itude	-2489
▁chick	-2490
▁grandma	-2491
▁woods	-2492
▁wom	-2493
ields	-2494
▁ap	-2495
▁stre	-2496
▁lunch	-2497
▁shared	-2498
}-	-2499
▁bath	-2500
▁drag	-2501
▁appro	-2502
▁thank	-2503
▁bigger	-2504
ault	-2505
graph	-2506
▁exper	-2507
cean	-2508
▁lake	-2509
▁memb	-2510
▁similar	-2511
▁SE	-2512
alent	-2513
ially	-2514
ffe	-2515
▁mix	-2516
▁diam	-2517
▁inequality	-2518
rot	-2519
▁alone	-2520
▁rate	-2521
▁drive	-2522
▁giving	-2523
ABCD	-2524
▁Two	-2525
▁once	-2526
▁fight	-2527
gen	-2528
}.$$	-2529
▁suc	-2530
bs	-2531
▁jour	-2532
▁prot	-2533
▁building	-2534
lic	-2535
▁En	-2536
▁develop	-2537
▁es	-2538
ization	-2539
▁caught	-2540
▁letter	-2541
▁occurs	-2542
rod	-2543
aced	-2544
▁intersect	-2545
ruct	-2546
phant	-2547
bo	-2548
▁cap	-2549
▁sea	-2550
▁Also	-2551
▁talk	-2552
▁blank	-2553
▁ident	-2554
fty	-2555
▁er	-2556
▁ev	-2557
▁remember	-2558
▁tang	-2559
umn	-2560
},\]	-2561
plies	-2562
Arrows	-2563
▁Their	-2564
▁girls	-2565
▁heart	-2566
▁moral	-2567
▁letters	-2568
▁bal	-2569
▁duck	-2570
▁word	-2571
▁coins	-2572
▁congru	-2573
▁circles	-2574
▁satisfy	-2575
▁perimeter	-2576
infty	-2577
▁spark	-2578
▁Simplif	-2579
▁band	-2580
▁wasn	-2581
▁period	-2582
▁written	-2583
tr	-2584
▁joy	-2585
tex	-2586
mber	-2587
rack	-2588
▁buck	-2589
▁unit	-2590
▁cases	-2591
▁danger	-2592
▁flying	-2593
▁combined	-2594
▁constant	-2595
BD	-2596
iling	-2597
▁sect	-2598
▁slowly	-2599
▁contains	-2600
▁midpoint	-2601
hag	-2602
}}{\	-2603
▁Mond	-2604
ded	-2605
ped	-2606
▁sour	-2607
▁added	-2608
▁ordered	-2609
▁student	-2610
set	-2611
▁hungry	-2612
aur	-2613
▁Pl	-2614
▁av	-2615
▁Cha	-2616
▁lengths	-2617
da	-2618
▁treas	-2619
▁amazed	-2620
▁cents	-2621
▁rocks	-2622
▁tank	-2623
▁river	-2624
▁Theorem	-2625
Oh	-2626
rite	-2627
▁eating	-2628
▁members	-2629
▁discount	-2630
But	-2631
andy	-2632
div	-2633
▁vector	-2634
▁becomes	-2635
▁Jenny	-2636
▁middle	-2637
▁body	-2638
▁bread	-2639
roc	-2640
umer	-2641
erry	-2642
▁equals	-2643
int	-2644
▁Emma	-2645
▁asks	-2646
▁degree	-2647
▁Monday	-2648
▁crayons	-2649
▁Together	-2650
▁comes	-2651
ems	-2652
orrow	-2653
▁worth	-2654
▁diag	-2655
▁ones	-2656
▁uses	-2657
▁diagon	-2658
ock	-2659
("$\	-2660
fort	-2661
▁cou	-2662
▁math	-2663
▁decimal	-2664
bf	-2665
▁range	-2666
▁process	-2667
▁multiples	-2668
}{(	-2669
▁Ge	-2670
▁NW	-2671
ivers	-2672
▁true	-2673
▁fruit	-2674
▁entire	-2675
&&&&	-2676
ucky	-2677
▁juice	-2678
▁pulled	-2679
ventually	-2680
shift	-2681
▁dance	-2682
▁snack	-2683
▁possib	-2684
uzz	-2685
▁lead	-2686
▁phot	-2687
hel	-2688
▁mach	-2689
▁liters	-2690
▁Ste	-2691
pond	-2692
▁key	-2693
tfrac	-2694
▁eff	-2695
▁coin	-2696
▁pool	-2697
▁steps	-2698
▁record	-2699
aken	-2700
iable	-2701
▁neck	-2702
▁onto	-2703
▁star	-2704
▁allow	-2705
▁heavy	-2706
▁matter	-2707
ata	-2708
come	-2709
▁shows	-2710
▁listened	-2711
eters	-2712
▁bill	-2713
▁daddy	-2714
▁ago	-2715
▁numer	-2716
ony	-2717
▁obser	-2718
▁press	-2719
▁disapp	-2720
▁dragon	-2721
nes	-2722
▁sent	-2723
▁wave	-2724
▁ocean	-2725
iron	-2726
▁ben	-2727
▁silly	-2728
▁scient	-2729
▁waited	-2730
ences	-2731
ilarly	-2732
▁Peter	-2733
▁often	-2734
ilities	-2735
▁birthday	-2736
iday	-2737
▁ban	-2738
▁tas	-2739
▁Supp	-2740
▁project	-2741
zen	-2742
▁hide	-2743
lex	-2744
ests	-2745
wise	-2746
ormal	-2747
▁become	-2748
▁simple	-2749
,.	-2750
)),	-2751
▁Add	-2752
▁flo	-2753
▁cone	-2754
▁known	-2755
ey	-2756
eared	-2757
aultpen	-2758
▁formed	-2759
▁reading	-2760
book	-2761
▁mouth	-2762
▁sells	-2763
▁select	-2764
▁series	-2765
light	-2766
textbf	-2767
▁areas	-2768
▁promised	-2769
▁bi	-2770
▁ma	-2771
▁segment	-2772
▁Alice	-2773
▁faces	-2774
▁calculate	-2775
ased	-2776
▁Soon	-2777
etting	-2778
▁believe	-2779
▁intersection	-2780
zy	-2781
▁–	-2782
rit	-2783
iant	-2784
▁dry	-2785
▁eas	-2786
utive	-2787
▁gold	-2788
circle	-2789
▁short	-2790
▁defined	-2791
▁parabola	-2792
.\	-2793
▁rand	-2794
berries	-2795
▁instead	-2796
which	-2797
▁wear	-2798
▁owner	-2799
▁study	-2800
}\\	-2801
▁ce	-2802
▁parts	-2803
▁comput	-2804
▁elephant	-2805
})^	-2806
▁--	-2807
iven	-2808
▁Mama	-2809
▁Tues	-2810
▁teach	-2811
▁teddy	-2812
▁working	-2813
ront	-2814
▁cubic	-2815
▁arrang	-2816
uss	-2817
▁Dan	-2818
▁owl	-2819
aches	-2820
▁phone	-2821
▁tomat	-2822
▁helping	-2823
▁perform	-2824
ythag	-2825
▁random	-2826
▁scored	-2827
(.	-2828
▁Pythag	-2829
▁smiles	-2830
▁selling	-2831
igg	-2832
▁Ar	-2833
most	-2834
Maybe	-2835
▁taken	-2836
atively	-2837
▁calories	-2838
▁Pa	-2839
read	-2840
▁Ann	-2841
▁opp	-2842
▁pock	-2843
▁magical	-2844
ration	-2845
▁secret	-2846
▁Suppose	-2847
▁fold	-2848
▁doctor	-2849
▁though	-2850
▁receive	-2851
ape	-2852
▁Sus	-2853
ipped	-2854
angular	-2855
▁string	-2856
▁vertex	-2857
▁Substituting	-2858
ining	-2859
▁Stud	-2860
▁stepped	-2861
althy	-2862
▁closed	-2863
▁direct	-2864
▁shirts	-2865
Hi	-2866
Why	-2867
jects	-2868
▁tiny	-2869
▁Fluffy	-2870
▁Tuesday	-2871
▁dangerous	-2872
ately	-2873
▁diagram	-2874
▁Alex	-2875
▁turns	-2876
▁Solving	-2877
▁worried	-2878
Therefore	-2879
,\!	-2880
idge	-2881
▁mot	-2882
▁banan	-2883
▁drove	-2884
▁'	-2885
ique	-2886
ivalent	-2887
▁crying	-2888
ced	-2889
pot	-2890
▁Emily	-2891
▁broke	-2892
▁level	-2893
▁particular	-2894
ured	-2895
▁imag	-2896
▁thus	-2897
▁success	-2898
▁simplifies	-2899
valu	-2900
▁pres	-2901
▁daught	-2902
af	-2903
leq	-2904
ring	-2905
▁create	-2906
▁dropped	-2907
▁received	-2908
ging	-2909
▁cats	-2910
together	-2911
ho	-2912
}_	-2913
ex	-2914
amps	-2915
▁$\$	-2916
▁men	-2917
▁vide	-2918
▁wide	-2919
▁cross	-2920
ush	-2921
itch	-2922
▁cra	-2923
inter	-2924
teful	-2925
▁fence	-2926
▁front	-2927
▁glass	-2928
aligned	-2929
▁cheese	-2930
imin	-2931
▁hit	-2932
▁late	-2933
▁yard	-2934
▁later	-2935
▁places	-2936
▁equivalent	-2937
▁Some	-2938
ural	-2939
▁bottom	-2940
▁tangent	-2941
▁divisors	-2942
ek	-2943
pend	-2944
▁wel	-2945
▁state	-2946
▁treasure	-2947
▁consider	-2948
rect	-2949
Mommy	-2950
▁data	-2951
itions	-2952
▁expen	-2953
EF	-2954
▁neare	-2955
▁balloons	-2956
▁grateful	-2957
▁La	-2958
▁eats	-2959
▁straw	-2960
▁veget	-2961
),(	-2962
}$",	-2963
▁gift	-2964
atures	-2965
▁coffe	-2966
▁Simplify	-2967
▁neighbor	-2968
▁therefore	-2969
▁New	-2970
▁fit	-2971
▁hid	-2972
Hence	-2973
▁Maybe	-2974
▁Using	-2975
▁moved	-2976
▁candies	-2977
▁defaultpen	-2978
▁temperature	-2979
▁El	-2980
play	-2981
▁Div	-2982
▁cart	-2983
▁stuck	-2984
▁blanket	-2985
ives	-2986
▁diff	-2987
▁Given	-2988
▁items	-2989
Okay	-2990
▁glo	-2991
▁type	-2992
imeters	-2993
fl	-2994
bot	-2995
orts	-2996
▁everywhere	-2997
▁earth	-2998
▁wings	-2999
▁monster	-3000
▁fr	-3001
▁whis	-3002
▁eight	-3003
▁jelly	-3004
max	-3005
mic	-3006
une	-3007
anglemark	-3008
ceil	-3009
▁foc	-3010
▁profit	-3011
▁colorful	-3012
$:	-3013
▁Mum	-3014
▁Jake	-3015
▁cust	-3016
▁repe	-3017
▁Daddy	-3018
▁tells	-3019
▁geomet	-3020
ah	-3021
▁AC	-3022
▁sho	-3023
▁scre	-3024
▁nearest	-3025
▁++	-3026
▁kite	-3027
yard	-3028
board	-3029
ement	-3030
▁threw	-3031
▁yields	-3032
bit	-3033
iam	-3034
▁low	-3035
▁feed	-3036
▁tower	-3037
▁Mart	-3038
pendic	-3039
▁coffee	-3040
work	-3041
▁Mic	-3042
▁Wed	-3043
▁sail	-3044
▁seeds	-3045
▁chairs	-3046
▁thinks	-3047
ultiplying	-3048
isa	-3049
son	-3050
orth	-3051
▁rub	-3052
▁spin	-3053
▁smart	-3054
▁earned	-3055
▁burn	-3056
▁While	-3057
▁players	-3058
bul	-3059
len	-3060
hline	-3061
anding	-3062
▁treat	-3063
▁purple	-3064
ieved	-3065
▁wish	-3066
▁previous	-3067
▁suddenly	-3068
▁bur	-3069
▁hist	-3070
▁father	-3071
▁pocket	-3072
▁Wednes	-3073
▁stri	-3074
ically	-3075
▁songs	-3076
▁single	-3077
▁bul	-3078
▁sym	-3079
▁bucket	-3080
▁perpendic	-3081
▁bars	-3082
▁sugg	-3083
▁satisfies	-3084
▁tur	-3085
orean	-3086
▁mass	-3087
▁custom	-3088
▁exploring	-3089
▁coefficients	-3090
▁page	-3091
▁cover	-3092
▁ducks	-3093
▁hypot	-3094
▁match	-3095
▁produce	-3096
▁Pythagorean	-3097
uel	-3098
▁cave	-3099
▁shell	-3100
▁rolled	-3101
▁practice	-3102
▁watching	-3103
$&	-3104
▁sil	-3105
▁Tweet	-3106
▁apart	-3107
vmatrix	-3108
▁double	-3109
▁purcha	-3110
den	-3111
math	-3112
▁bite	-3113
osite	-3114
iversity	-3115
▁divisor	-3116
ci	-3117
)$",	-3118
Sure	-3119
ires	-3120
▁ant	-3121
▁lon	-3122
▁clear	-3123
▁magic	-3124
▁Wednesday	-3125
PQ	-3126
}^{	-3127
▁nap	-3128
▁wra	-3129
aving	-3130
▁shirt	-3131
▁interval	-3132
▁stickers	-3133
▁Similarly	-3134
▁AB	-3135
vert	-3136
▁mic	-3137
▁oper	-3138
▁quiet	-3139
▁twins	-3140
▁nearby	-3141
ws	-3142
erc	-3143
▁De	-3144
ancy	-3145
▁buying	-3146
▁depend	-3147
▁daughter	-3148
mp	-3149
yle	-3150
oups	-3151
▁Bill	-3152
▁post	-3153
▁extra	-3154
▁fairy	-3155
fontsize	-3156
▁kiss	-3157
▁saved	-3158
▁protect	-3159
▁mountain	-3160
▁Sat	-3161
▁clouds	-3162
▁wouldn	-3163
▁walks	-3164
▁design	-3165
▁lonely	-3166
▁vegetable	-3167
▁Mat	-3168
▁prog	-3169
▁remo	-3170
▁consec	-3171
▁gentle	-3172
▁sounds	-3173
▁backyard	-3174
rightanglemark	-3175
▁Is	-3176
▁zero	-3177
respond	-3178
▁charac	-3179
tracting	-3180
▁Grandma	-3181
▁increase	-3182
▁explained	-3183
▁centimeters	-3184
▁Ad	-3185
▁slope	-3186
coordin	-3187
▁Inside	-3188
▁journey	-3189
▁numerator	-3190
hip	-3191
oms	-3192
▁AM	-3193
hour	-3194
▁Rob	-3195
ism	-3196
metic	-3197
ology	-3198
▁touc	-3199
▁collected	-3200
▁Later	-3201
▁dozen	-3202
▁super	-3203
▁driver	-3204
▁pushed	-3205
▁shapes	-3206
ithmetic	-3207
▁tax	-3208
undred	-3209
tens	-3210
▁fif	-3211
▁Paul	-3212
▁block	-3213
▁clapped	-3214
▁princess	-3215
)..(	-3216
hers	-3217
rate	-3218
true	-3219
ogram	-3220
▁occur	-3221
▁older	-3222
▁monkey	-3223
▁seemed	-3224
▁problems	-3225
▁arithmetic	-3226
▁accident	-3227
▁diameter	-3228
hand	-3229
▁Friday	-3230
▁perpendicular	-3231
__	-3232
osce	-3233
verse	-3234
ertain	-3235
osceles	-3236
▁belong	-3237
▁within	-3238
▁including	-3239
▁correspond	-3240
▁BC	-3241
rist	-3242
▁Har	-3243
▁jog	-3244
ctors	-3245
▁additional	-3246
▁factorization	-3247
oper	-3248
▁bee	-3249
▁soup	-3250
▁machine	-3251
raph	-3252
▁rope	-3253
▁Setting	-3254
▁kilomet	-3255
▁nothing	-3256
▁multiplying	-3257
*(	-3258
▁desc	-3259
▁sick	-3260
▁Sammy	-3261
▁alt	-3262
ouses	-3263
▁coll	-3264
▁drawn	-3265
▁groups	-3266
▁isosceles	-3267
▁consecutive	-3268
,(	-3269
If	-3270
▁dirty	-3271
▁swimming	-3272
inks	-3273
▁Lisa	-3274
▁hundred	-3275
▁equilateral	-3276
▁Eng	-3277
▁Gre	-3278
▁blood	-3279
▁normal	-3280
▁company	-3281
▁include	-3282
rm	-3283
osen	-3284
▁swam	-3285
▁chosen	-3286
▁congruent	-3287
bon	-3288
echn	-3289
▁log	-3290
▁hoped	-3291
▁neckl	-3292
▁upset	-3293
...	-3294
ley	-3295
▁mail	-3296
▁movie	-3297
▁placed	-3298
\%$	-3299
bow	-3300
cot	-3301
▁Mike	-3302
▁Will	-3303
▁welcome	-3304
@{	-3305
DE	-3306
ipse	-3307
▁Jul	-3308
▁Mrs	-3309
▁ble	-3310
▁moon	-3311
ground	-3312
▁fruits	-3313
OK	-3314
▁Def	-3315
▁Ind	-3316
▁lose	-3317
▁road	-3318
▁early	-3319
▁cheered	-3320
!$	-3321
oth	-3322
anch	-3323
▁sug	-3324
ribed	-3325
▁pile	-3326
▁socks	-3327
▁colour	-3328
▁shaded	-3329
▁pattern	-3330
▁Students	-3331
sed	-3332
osed	-3333
▁stra	-3334
▁lemon	-3335
▁planet	-3336
▁holding	-3337
pa	-3338
▁video	-3339
▁meaning	-3340
)\\	-3341
anna	-3342
▁init	-3343
▁packs	-3344
ference	-3345
▁street	-3346
of	-3347
ulation	-3348
▁circum	-3349
▁question	-3350
graf	-3351
izon	-3352
▁swe	-3353
vings	-3354
▁empt	-3355
▁doesn	-3356
▁forget	-3357
▁correct	-3358
@{}	-3359
▁map	-3360
▁among	-3361
▁flour	-3362
▁sticks	-3363
▁learning	-3364
▁measures	-3365
▁$\{	-3366
▁pal	-3367
▁bills	-3368
▁storm	-3369
▁magnet	-3370
▁expressed	-3371
▁Tod	-3372
▁lower	-3373
▁shook	-3374
▁itself	-3375
▁ell	-3376
ldraw	-3377
ocked	-3378
▁determine	-3379
Now	-3380
een	-3381
▁bc	-3382
ital	-3383
▁Pro	-3384
▁ins	-3385
▁shr	-3386
▁direction	-3387
▁percentage	-3388
cis	-3389
uit	-3390
▁TV	-3391
label	-3392
▁filldraw	-3393
gers	-3394
otes	-3395
▁arm	-3396
owing	-3397
▁busy	-3398
▁sets	-3399
▁sugar	-3400
▁swings	-3401
▁account	-3402
▁laughing	-3403
Do	-3404
airs	-3405
epend	-3406
ested	-3407
▁bake	-3408
▁gray	-3409
▁mine	-3410
▁pens	-3411
▁push	-3412
▁tent	-3413
▁fewer	-3414
▁adding	-3415
▁Bl	-3416
▁adm	-3417
▁lim	-3418
▁rac	-3419
▁Fred	-3420
▁arms	-3421
▁Johnny	-3422
▁myster	-3423
▁notice	-3424
▁horizon	-3425
▁adventures	-3426
▁,	-3427
▁Am	-3428
sive	-3429
▁Not	-3430
▁tub	-3431
▁vie	-3432
▁Geor	-3433
▁fing	-3434
▁wand	-3435
overed	-3436
▁University	-3437
ik	-3438
▁Te	-3439
▁conc	-3440
▁micro	-3441
▁compet	-3442
▁search	-3443
▁sitting	-3444
▁parallel	-3445
sel	-3446
▁Cal	-3447
▁adv	-3448
▁goal	-3449
▁hypoten	-3450
▁eventually	-3451
▁relatively	-3452
▁interesting	-3453
▁Don	-3454
▁huge	-3455
▁sang	-3456
▁holds	-3457
▁kilogram	-3458
AS	-3459
By	-3460
)*"	-3461
can	-3462
size	-3463
▁saf	-3464
▁cupc	-3465
▁Enter	-3466
▁beads	-3467
▁possibilities	-3468
olf	-3469
▁tool	-3470
▁sunny	-3471
▁moving	-3472
▁wearing	-3473
con	-3474
egative	-3475
▁plates	-3476
▁stamps	-3477
▁counted	-3478
▁stories	-3479
▁currently	-3480
▁hypotenuse	-3481
rots	-3482
▁vac	-3483
▁lies	-3484
▁text	-3485
▁wash	-3486
▁woke	-3487
ograph	-3488
▁struct	-3489
▁carried	-3490
▁classroom	-3491
DC	-3492
hod	-3493
▁No	-3494
▁ring	-3495
▁corner	-3496
▁certain	-3497
▁rainbow	-3498
▁writing	-3499
▁determined	-3500
-(	-3501
▁af	-3502
iches	-3503
▁cells	-3504
▁empty	-3505
▁unique	-3506
▁elements	-3507
▁conditions	-3508
uses	-3509
itive	-3510
▁avail	-3511
negative	-3512
▁patient	-3513
▁property	-3514
▁vegetables	-3515
)+(	-3516
neq	-3517
ases	-3518
▁cyl	-3519
▁net	-3520
acked	-3521
ption	-3522
▁cookie	-3523
▁starting	-3524
▁variable	-3525
▁collection	-3526
lies	-3527
▁bin	-3528
▁emb	-3529
▁eng	-3530
▁easy	-3531
points	-3532
▁branch	-3533
▁sphere	-3534
MP	-3535
)(-	-3536
ris	-3537
inch	-3538
▁edge	-3539
▁horse	-3540
valuate	-3541
▁Define	-3542
▁forward	-3543
▁touched	-3544
erv	-3545
ilt	-3546
uth	-3547
vin	-3548
▁//	-3549
▁\|\	-3550
▁puzz	-3551
▁vill	-3552
▁waves	-3553
▁carbon	-3554
▁scientists	-3555
▁&=\	-3556
ended	-3557
▁fixed	-3558
▁naught	-3559
▁noises	-3560
▁tomatoes	-3561
ean	-3562
ica	-3563
}$$	-3564
▁Ell	-3565
▁lie	-3566
▁wise	-3567
▁feels	-3568
▁model	-3569
▁exciting	-3570
▁sandwiches	-3571
nect	-3572
▁Res	-3573
▁lad	-3574
▁tun	-3575
rated	-3576
vered	-3577
▁mist	-3578
▁pays	-3579
▁image	-3580
▁pants	-3581
▁almost	-3582
▁spread	-3583
▁starts	-3584
▁altogether	-3585
▁enc	-3586
▁beha	-3587
▁dice	-3588
selves	-3589
▁peace	-3590
▁appear	-3591
▁object	-3592
▁singing	-3593
▁research	-3594
icle	-3595
▁live	-3596
▁nose	-3597
▁island	-3598
▁naughty	-3599
▁support	-3600
▁relieved	-3601
jor	-3602
▁<=	-3603
▁hex	-3604
▁wild	-3605
▁Satur	-3606
▁compute	-3607
▁activities	-3608
ivid	-3609
lied	-3610
▁cele	-3611
▁sack	-3612
▁seek	-3613
▁pointed	-3614
▁vectors	-3615
rad	-3616
▁kg	-3617
ators	-3618
▁nest	-3619
▁port	-3620
▁board	-3621
▁types	-3622
▁horizontal	-3623
col	-3624
}}.	-3625
athe	-3626
▁abs	-3627
▁eag	-3628
▁bush	-3629
▁pean	-3630
▁Mummy	-3631
▁expon	-3632
▁anyone	-3633
▁market	-3634
▁divides	-3635
▁altitude	-3636
▁computer	-3637
ogn	-3638
}$?	-3639
▁flag	-3640
▁rows	-3641
▁column	-3642
▁passes	-3643
▁million	-3644
▁increased	-3645
▁Char	-3646
▁dest	-3647
▁seat	-3648
▁chips	-3649
▁history	-3650
▁waiting	-3651
▁kilometers	-3652
▁je	-3653
zero	-3654
ances	-3655
icult	-3656
▁cubes	-3657
▁shape	-3658
▁houses	-3659
▁leaving	-3660
)));	-3661
▁hugs	-3662
▁Jerry	-3663
▁powers	-3664
▁covered	-3665
▁rectangular	-3666
▁fema	-3667
▁mole	-3668
▁human	-3669
stitute	-3670
▁further	-3671
▁available	-3672
ipe	-3673
uro	-3674
alax	-3675
rage	-3676
▁rolls	-3677
▁balance	-3678
▁coefficient	-3679
iness	-3680
▁hope	-3681
▁split	-3682
▁cupcakes	-3683
▁vertical	-3684
▁wondered	-3685
▁geometric	-3686
▁Tony	-3687
▁king	-3688
▁bench	-3689
▁dinos	-3690
▁honey	-3691
▁difficult	-3692
plo	-3693
▁$[	-3694
▁sale	-3695
▁weighs	-3696
▁Saturday	-3697
▁accidentally	-3698
\[	-3699
amb	-3700
ete	-3701
Lily	-3702
dotsb	-3703
▁gigg	-3704
▁fifth	-3705
▁techn	-3706
▁bedroom	-3707
▁drawing	-3708
▁researc	-3709
)$?	-3710
ify	-3711
aged	-3712
▁main	-3713
▁pudd	-3714
▁ship	-3715
▁giant	-3716
Of	-3717
▁craw	-3718
▁women	-3719
osphere	-3720
▁passed	-3721
▁changes	-3722
▁spotted	-3723
yl	-3724
▁Vi	-3725
▁ast	-3726
▁zoo	-3727
▁grad	-3728
▁teeth	-3729
▁danced	-3730
AE	-3731
ops	-3732
ision	-3733
▁coun	-3734
▁ellipse	-3735
▁standing	-3736
abc	-3737
▁die	-3738
▁prep	-3739
▁hexagon	-3740
|^	-3741
)}\	-3742
▁resp	-3743
▁view	-3744
▁feather	-3745
▁quarter	-3746
▁discovered	-3747
▁cop	-3748
▁dom	-3749
▁egg	-3750
atorn	-3751
▁libra	-3752
atorname	-3753
▁desired	-3754
▁healthy	-3755
operatorname	-3756
)}.$	-3757
▁expect	-3758
▁individ	-3759
▁smiling	-3760
▁American	-3761
▁expensive	-3762
Hey	-3763
▁Bet	-3764
▁Col	-3765
under	-3766
▁hats	-3767
ission	-3768
▁Frank	-3769
▁Somet	-3770
▁Adding	-3771
▁Of	-3772
▁py	-3773
▁Sol	-3774
▁cute	-3775
▁hang	-3776
▁mind	-3777
▁quadr	-3778
▁science	-3779
angu	-3780
▁arc	-3781
▁Arrow	-3782
▁walls	-3783
▁bananas	-3784
▁finding	-3785
▁activity	-3786
nic	-3787
oom	-3788
▁aff	-3789
wered	-3790
▁phys	-3791
▁Maria	-3792
▁recogn	-3793
▁delight	-3794
▁helpful	-3795
▁separated	-3796
ense	-3797
ison	-3798
▁anc	-3799
▁fis	-3800
▁oct	-3801
▁cakes	-3802
▁earns	-3803
▁plate	-3804
ination	-3805
▁method	-3806
▁equally	-3807
&=\	-3808
bed	-3809
▁CD	-3810
inet	-3811
▁bis	-3812
illed	-3813
▁axis	-3814
▁sharp	-3815
▁smoot	-3816
▁stret	-3817
ror	-3818
ury	-3819
lish	-3820
time	-3821
▁Why	-3822
▁ign	-3823
▁wag	-3824
shine	-3825
▁Fact	-3826
▁heat	-3827
▁puts	-3828
▁sever	-3829
▁stuff	-3830
▁carrots	-3831
▁bathroom	-3832
œI	-3833
ups	-3834
raid	-3835
▁mad	-3836
▁rew	-3837
▁Next	-3838
▁cozy	-3839
▁scale	-3840
▁created	-3841
▁talking	-3842
▁atm	-3843
▁Mars	-3844
panding	-3845
amer	-3846
▁Today	-3847
implies	-3848
▁afraid	-3849
▁chance	-3850
▁counting	-3851
▁notebook	-3852
▁bx	-3853
▁ft	-3854
▁arg	-3855
▁Come	-3856
▁beans	-3857
▁commun	-3858
▁electr	-3859
▁against	-3860
▁painting	-3861
▁beginning	-3862
draw	-3863
▁ter	-3864
icked	-3865
▁Pete	-3866
▁Write	-3867
▁hello	-3868
▁invest	-3869
▁smooth	-3870
▁chicken	-3871
▁results	-3872
▁appeared	-3873
▁interior	-3874
▁powerful	-3875
▁sandwich	-3876
▁Multiplying	-3877
BE	-3878
pro	-3879
rum	-3880
pers	-3881
▁cher	-3882
▁cows	-3883
ittens	-3884
▁diagonal	-3885
▁opposite	-3886
oph	-3887
ulo	-3888
orat	-3889
▁bugs	-3890
▁pies	-3891
▁Three	-3892
▁Vieta	-3893
▁lucky	-3894
▁react	-3895
▁seats	-3896
▁During	-3897
▁George	-3898
▁comfort	-3899
▁program	-3900
▁chickens	-3901
▁ep	-3902
Come	-3903
Find	-3904
ploy	-3905
ympt	-3906
▁galax	-3907
▁raise	-3908
▁sales	-3909
▁symmet	-3910
▁several	-3911
▁formulas	-3912
▁independ	-3913
▁strawberries	-3914
ns	-3915
pec	-3916
fish	-3917
▁law	-3918
ighed	-3919
▁soda	-3920
▁Susie	-3921
▁heads	-3922
▁spoon	-3923
▁answered	-3924
▁produced	-3925
▁sunshine	-3926
▁condition	-3927
$&$	-3928
▁potat	-3929
▁contrib	-3930
ssed	-3931
leased	-3932
▁yards	-3933
▁objects	-3934
bold	-3935
▁Rec	-3936
▁pri	-3937
thern	-3938
▁gain	-3939
▁plus	-3940
arched	-3941
▁snake	-3942
dbinom	-3943
▁robot	-3944
▁charge	-3945
▁ladder	-3946
▁character	-3947
▁materials	-3948
Ar	-3949
ipp	-3950
ply	-3951
eral	-3952
hest	-3953
▁dem	-3954
▁reduc	-3955
▁pizzas	-3956
▁spider	-3957
▁snowman	-3958
▁successful	-3959
▁Subtracting	-3960
unt	-3961
▁solar	-3962
▁except	-3963
▁ticket	-3964
▁connect	-3965
▁discuss	-3966
▁species	-3967
▁understanding	-3968
})(	-3969
}}\	-3970
▁lab	-3971
▁lift	-3972
▁decre	-3973
quality	-3974
▁drinks	-3975
▁infect	-3976
▁implies	-3977
▁usually	-3978
▁village	-3979
▁increasing	-3980
cu	-3981
!}{	-3982
▁Ph	-3983
▁Lit	-3984
▁bub	-3985
▁Andy	-3986
▁Sund	-3987
▁self	-3988
▁gover	-3989
▁pound	-3990
▁roses	-3991
▁tasty	-3992
▁modulo	-3993
▁office	-3994
▁researchers	-3995
mm	-3996
=(-	-3997
iff	-3998
nel	-3999
▁Tr	-4000
ently	-4001
umber	-4002
▁spicy	-4003
▁breath	-4004
▁lovely	-4005
▁searched	-4006
.,	-4007
gon	-4008
arra	-4009
ella	-4010
▁est	-4011
▁los	-4012
▁grew	-4013
▁Thank	-4014
▁Thurs	-4015
▁kinds	-4016
▁pyram	-4017
▁width	-4018
▁employ	-4019
▁Science	-4020
▁Triangle	-4021
▁themselves	-4022
+$	-4023
▁par	-4024
viron	-4025
▁Carl	-4026
▁tasted	-4027
▁quarters	-4028
▁whenever	-4029
My	-4030
St	-4031
pez	-4032
xmax	-4033
astic	-4034
iment	-4035
atural	-4036
▁exist	-4037
▁loves	-4038
pecially	-4039
▁forever	-4040
▁pressure	-4041
ees	-4042
{-\	-4043
bola	-4044
▁Jos	-4045
▁cow	-4046
ching	-4047
wards	-4048
▁bell	-4049
▁send	-4050
▁major	-4051
▁skills	-4052
▁trucks	-4053
▁station	-4054
▁standard	-4055
--(	-4056
ief	-4057
ums	-4058
Note	-4059
▁Case	-4060
▁domain	-4061
▁straight	-4062
ands	-4063
ency	-4064
eros	-4065
▁nick	-4066
▁primes	-4067
▁trapez	-4068
▁volcan	-4069
▁decides	-4070
▁Thursday	-4071
▁position	-4072
▁especially	-4073
{(-	-4074
▁Ab	-4075
▁oven	-4076
▁rooms	-4077
▁shelf	-4078
▁Sometimes	-4079
nal	-4080
anda	-4081
hael	-4082
▁Mon	-4083
▁tom	-4084
▁stat	-4085
▁yarn	-4086
ension	-4087
▁spots	-4088
▁woman	-4089
▁adults	-4090
▁govern	-4091
▁season	-4092
▁general	-4093
▁library	-4094
▁son	-4095
▁tea	-4096
▁camp	-4097
▁meal	-4098
ements	-4099
length	-4100
▁Sunday	-4101
▁smelled	-4102
▁nonnegative	-4103
\|	-4104
bp	-4105
▁Or	-4106
▁xy	-4107
▁ach	-4108
▁pub	-4109
Ticks	-4110
▁Jess	-4111
▁pill	-4112
though	-4113
▁bound	-4114
▁picks	-4115
▁asympt	-4116
▁shells	-4117
▁confused	-4118
mit	-4119
ears	-4120
iger	-4121
nies	-4122
▁Kim	-4123
▁May	-4124
▁gara	-4125
▁tele	-4126
▁warn	-4127
▁brace	-4128
▁chest	-4129
▁asleep	-4130
▁picnic	-4131
▁country	-4132
▁proport	-4133
▁kilograms	-4134
▁mud	-4135
▁Bobby	-4136
▁langu	-4137
▁thick	-4138
▁garage	-4139
▁section	-4140
▁shining	-4141
▁tomorrow	-4142
▁Kit	-4143
▁tro	-4144
quare	-4145
▁bark	-4146
idence	-4147
▁clever	-4148
▁removed	-4149
▁Dividing	-4150
▁segments	-4151
''	-4152
cal	-4153
ius	-4154
arct	-4155
hood	-4156
▁dough	-4157
▁holes	-4158
▁embarra	-4159
▁impress	-4160
▁customers	-4161
tt	-4162
ira	-4163
▁($	-4164
▁Tob	-4165
▁Even	-4166
▁boun	-4167
bullet	-4168
▁exerc	-4169
▁borrow	-4170
▁simply	-4171
▁ancient	-4172
▁counter	-4173
▁restaur	-4174
▁=\	-4175
pack	-4176
usive	-4177
▁comb	-4178
▁mile	-4179
▁eaten	-4180
▁trouble	-4181
▁returned	-4182
▁$-\	-4183
▁Sun	-4184
dotsm	-4185
inary	-4186
▁fuel	-4187
▁scar	-4188
▁decide	-4189
▁matrix	-4190
▁celebra	-4191
▁distrib	-4192
▁et	-4193
ails	-4194
▁hon	-4195
▁Adam	-4196
▁Poin	-4197
▁meat	-4198
▁weak	-4199
▁guests	-4200
▁photos	-4201
▁Michael	-4202
▁monthly	-4203
*$	-4204
oe	-4205
▁Ke	-4206
▁Red	-4207
ifted	-4208
▁canc	-4209
▁loss	-4210
▁motor	-4211
onsider	-4212
▁accept	-4213
▁kitten	-4214
▁rational	-4215
▁basketball	-4216
kin	-4217
ppy	-4218
▁Qu	-4219
▁Leo	-4220
▁coat	-4221
▁poly	-4222
▁adult	-4223
▁cheer	-4224
▁sheep	-4225
▁dividing	-4226
▁trapezoid	-4227
ody	-4228
Good	-4229
ians	-4230
▁Pat	-4231
rates	-4232
▁Here	-4233
▁dise	-4234
▁tens	-4235
scribed	-4236
▁pyramid	-4237
▁Sm	-4238
▁suit	-4239
▁treats	-4240
▁promise	-4241
▁restaurant	-4242
-$	-4243
AP	-4244
ASA	-4245
fast	-4246
ites	-4247
▁dou	-4248
▁jew	-4249
▁pan	-4250
ounce	-4251
▁hosp	-4252
▁Steve	-4253
▁crack	-4254
▁furry	-4255
▁stone	-4256
cked	-4257
lock	-4258
▁couch	-4259
▁grade	-4260
▁player	-4261
▁screamed	-4262
rs	-4263
▁Ed	-4264
lets	-4265
}\|^	-4266
▁ann	-4267
▁blew	-4268
▁seven	-4269
▁talked	-4270
▁actually	-4271
bx	-4272
ned	-4273
▁pin	-4274
▁shy	-4275
▁NASA	-4276
▁pump	-4277
▁queen	-4278
resents	-4279
▁asking	-4280
coordinate	-4281
}-\	-4282
kend	-4283
resh	-4284
▁esc	-4285
phone	-4286
▁Brit	-4287
ential	-4288
▁rocket	-4289
▁environ	-4290
▁sharing	-4291
("$(	-4292
▁Fur	-4293
▁vase	-4294
▁Kitty	-4295
▁built	-4296
▁defin	-4297
▁grams	-4298
▁traveled	-4299
▁fractions	-4300
kn	-4301
▁rh	-4302
aser	-4303
▁lat	-4304
▁lik	-4305
▁tid	-4306
▁meant	-4307
▁medic	-4308
▁moder	-4309
▁taste	-4310
▁introd	-4311
▁driving	-4312
▁cylinder	-4313
▁electric	-4314
▁necklace	-4315
▁randomly	-4316
▁represents	-4317
▁bac	-4318
▁bank	-4319
▁bone	-4320
▁rent	-4321
choose	-4322
▁clock	-4323
▁eager	-4324
▁layer	-4325
▁tiles	-4326
▁snacks	-4327
▁wheels	-4328
▁nonzero	-4329
▁weekend	-4330
▁division	-4331
▁thinking	-4332
▁population	-4333
))*	-4334
elp	-4335
unk	-4336
▁Ju	-4337
alse	-4338
ened	-4339
▁Annie	-4340
▁helps	-4341
▁trust	-4342
athered	-4343
▁Before	-4344
▁Christ	-4345
▁hidden	-4346
▁English	-4347
▁showing	-4348
▁cleaning	-4349
▁creature	-4350
▁teachers	-4351
▁embarrassed	-4352
ae	-4353
rd	-4354
aps	-4355
oop	-4356
}^\	-4357
▁Ang	-4358
lings	-4359
▁iron	-4360
▁knee	-4361
▁melt	-4362
▁gently	-4363
▁puddle	-4364
▁silver	-4365
now	-4366
year	-4367
▁Ken	-4368
▁flu	-4369
▁ham	-4370
$",(-	-4371
▁city	-4372
▁loll	-4373
▁muff	-4374
▁skin	-4375
▁drank	-4376
▁hyper	-4377
ndArrow	-4378
▁inverse	-4379
▁atmosphere	-4380
▁Che	-4381
▁Rac	-4382
▁eye	-4383
▁sem	-4384
berry	-4385
▁groc	-4386
▁mush	-4387
ention	-4388
▁Teddy	-4389
▁lollip	-4390
▁useful	-4391
▁content	-4392
▁natural	-4393
▁provide	-4394
▁hospital	-4395
▁selected	-4396
▁playground	-4397
bc	-4398
▁Se	-4399
▁Dav	-4400
ising	-4401
▁dust	-4402
▁quant	-4403
▁Rachel	-4404
▁summer	-4405
▁allowed	-4406
▁painted	-4407
▁Consider	-4408
▁breakfast	-4409
▁diagonals	-4410
▁Ol	-4411
ymin	-4412
▁$(\	-4413
▁Grace	-4414
quaring	-4415
▁Little	-4416
▁United	-4417
▁assign	-4418
▁finger	-4419
▁consists	-4420
In	-4421
ores	-4422
ymax	-4423
▁Sha	-4424
▁June	-4425
▁drew	-4426
▁lock	-4427
▁poor	-4428
lusive	-4429
ointed	-4430
ording	-4431
▁stack	-4432
▁likely	-4433
▁knocked	-4434
▁specific	-4435
▁mysterious	-4436
acy	-4437
lesc	-4438
ties	-4439
▁gun	-4440
ultic	-4441
▁Jeff	-4442
▁dirt	-4443
▁nuts	-4444
▁zoom	-4445
▁marks	-4446
▁stood	-4447
▁changed	-4448
▁display	-4449
▁jumping	-4450
("\	-4451
)\]	-4452
ceed	-4453
tons	-4454
▁Wor	-4455
▁cab	-4456
▁ing	-4457
▁tip	-4458
▁Inst	-4459
▁Your	-4460
▁crab	-4461
▁metal	-4462
▁States	-4463
▁batter	-4464
▁hiding	-4465
▁necess	-4466
▁Evaluate	-4467
rimin	-4468
ungle	-4469
▁rare	-4470
▁soil	-4471
▁focus	-4472
▁wheel	-4473
▁easily	-4474
▁however	-4475
amma	-4476
cles	-4477
▁fre	-4478
▁jam	-4479
house	-4480
▁chal	-4481
▁clay	-4482
▁Janet	-4483
▁jungle	-4484
▁marble	-4485
▁pencil	-4486
▁gathered	-4487
▁increases	-4488
ifts	-4489
▁adj	-4490
▁mir	-4491
icles	-4492
izing	-4493
orter	-4494
▁ears	-4495
▁load	-4496
▁stir	-4497
▁tools	-4498
ulticol	-4499
▁Notice	-4500
▁knowing	-4501
▁tightly	-4502
▁mushroom	-4503
▁Go	-4504
iety	-4505
▁Law	-4506
▁due	-4507
▁wha	-4508
▁wore	-4509
▁famil	-4510
Solving	-4511
▁astron	-4512
▁commas	-4513
▁element	-4514
▁package	-4515
▁simplify	-4516
▁discrimin	-4517
▁government	-4518
▁fa	-4519
▁sq	-4520
bled	-4521
izzy	-4522
rian	-4523
sect	-4524
▁Hen	-4525
▁opt	-4526
▁tag	-4527
▁pred	-4528
▁cause	-4529
▁bridge	-4530
▁rotate	-4531
▁candles	-4532
▁pretended	-4533
AM	-4534
omm	-4535
xygen	-4536
▁leaf	-4537
iction	-4538
▁guess	-4539
▁require	-4540
▁purchase	-4541
▁arrangements	-4542
]--	-4543
▁Jason	-4544
▁camer	-4545
▁frust	-4546
▁spray	-4547
▁wrote	-4548
▁button	-4549
▁lights	-4550
▁resour	-4551
▁turtle	-4552
multicol	-4553
▁Mittens	-4554
▁regions	-4555
▁simplest	-4556
multicolumn	-4557
geq	-4558
▁Pr	-4559
▁led	-4560
ishes	-4561
▁ends	-4562
▁lawn	-4563
ipping	-4564
▁Betty	-4565
▁contr	-4566
▁print	-4567
▁yield	-4568
▁modern	-4569
▁weather	-4570
▁language	-4571
&\	-4572
imed	-4573
ucle	-4574
xmin	-4575
imens	-4576
▁grab	-4577
▁seas	-4578
logram	-4579
▁based	-4580
▁indic	-4581
▁rough	-4582
▁Please	-4583
EndArrow	-4584
▁arrange	-4585
▁whistle	-4586
▁resulting	-4587
GM	-4588
▁km	-4589
isod	-4590
▁dev	-4591
▁hyd	-4592
enter	-4593
hemat	-4594
▁choo	-4595
▁soap	-4596
▁clown	-4597
▁minim	-4598
▁engine	-4599
▁remind	-4600
▁sleepy	-4601
lication	-4602
▁football	-4603
▁peaceful	-4604
▁structure	-4605
▁disappointed	-4606
EE	-4607
arr	-4608
head	-4609
▁Ant	-4610
rogen	-4611
▁Toby	-4612
▁calm	-4613
▁encou	-4614
▁impro	-4615
▁episod	-4616
▁corresponding	-4617
$;	-4618
XY	-4619
?".	-4620
canc	-4621
▁Are	-4622
▁kid	-4623
ering	-4624
known	-4625
▁Read	-4626
▁Soph	-4627
▁club	-4628
▁ingred	-4629
▁missed	-4630
▁puzzle	-4631
▁yelled	-4632
▁inscribed	-4633
!}	-4634
bal	-4635
▁spo	-4636
third	-4637
▁mead	-4638
▁para	-4639
▁flash	-4640
▁picking	-4641
▁dinosaur	-4642
▁hyperbola	-4643
ern	-4644
pts	-4645
▁${	-4646
tely	-4647
week	-4648
▁App	-4649
▁Our	-4650
▁war	-4651
▁cater	-4652
▁local	-4653
▁floors	-4654
▁taught	-4655
▁deliver	-4656
▁missing	-4657
▁nickels	-4658
▁creative	-4659
▁remained	-4660
)]	-4661
gly	-4662
▁\{	-4663
onst	-4664
▁nut	-4665
olved	-4666
▁Josh	-4667
▁infl	-4668
▁unus	-4669
indrom	-4670
▁fancy	-4671
▁fresh	-4672
▁grown	-4673
▁laund	-4674
▁effect	-4675
▁Further	-4676
▁travels	-4677
▁baseball	-4678
▁yourself	-4679
▁construct	-4680
▁parallelogram	-4681
dis	-4682
lor	-4683
olph	-4684
view	-4685
echan	-4686
tered	-4687
▁shel	-4688
▁knows	-4689
▁maybe	-4690
▁landed	-4691
▁stairs	-4692
▁dancing	-4693
▁forgive	-4694
▁sparkly	-4695
▁fighting	-4696
▁inclusive	-4697
▁circumference	-4698
ule	-4699
annah	-4700
plane	-4701
▁rude	-4702
▁ugly	-4703
▁Brown	-4704
▁ideas	-4705
▁carrot	-4706
▁denote	-4707
▁splash	-4708
▁planted	-4709
▁radical	-4710
▁National	-4711
▁Everywhere	-4712
▁experience	-4713
omy	-4714
aper	-4715
lier	-4716
▁gum	-4717
ument	-4718
▁Look	-4719
▁ages	-4720
▁jack	-4721
▁forms	-4722
▁mixed	-4723
isk	-4724
",(-	-4725
iers	-4726
iped	-4727
soci	-4728
Where	-4729
▁cage	-4730
▁sett	-4731
▁tears	-4732
▁oxygen	-4733
▁stones	-4734
▁individual	-4735
▁substitute	-4736
OB	-4737
)&=	-4738
Tom	-4739
ype	-4740
▁Mo	-4741
ingu	-4742
pill	-4743
raft	-4744
▁sna	-4745
▁gate	-4746
▁thous	-4747
▁meadow	-4748
▁resist	-4749
▁growing	-4750
Ex	-4751
cip	-4752
phi	-4753
▁Hal	-4754
ctions	-4755
▁upper	-4756
▁neither	-4757
▁polygon	-4758
▁understood	-4759
foot	-4760
irts	-4761
medi	-4762
ugging	-4763
▁Jenna	-4764
▁North	-4765
▁Smith	-4766
▁chased	-4767
▁calling	-4768
▁climate	-4769
▁glasses	-4770
▁fontsize	-4771
[]	-4772
gu	-4773
rox	-4774
▁My	-4775
▁Su	-4776
izes	-4777
}}=\	-4778
▁Rem	-4779
▁peb	-4780
hamed	-4781
▁chem	-4782
abular	-4783
rotate	-4784
uction	-4785
▁liter	-4786
▁track	-4787
▁gallon	-4788
▁caterpill	-4789
▁radiation	-4790
wers	-4791
▁Kat	-4792
▁bab	-4793
▁nor	-4794
▁anal	-4795
▁chew	-4796
▁liqu	-4797
▁rode	-4798
▁apply	-4799
▁bones	-4800
▁hears	-4801
▁choice	-4802
▁female	-4803
▁peanut	-4804
▁unusual	-4805
▁carrying	-4806
▁properties	-4807
omb	-4808
▁da	-4809
▁yet	-4810
cline	-4811
color	-4812
orses	-4813
anches	-4814
erries	-4815
iverse	-4816
▁Solve	-4817
▁barked	-4818
▁drives	-4819
▁buttons	-4820
▁centered	-4821
▁expected	-4822
▁symmetry	-4823
Al	-4824
aw	-4825
,-.	-4826
umpy	-4827
▁iss	-4828
style	-4829
white	-4830
▁Dave	-4831
▁Germ	-4832
▁Thom	-4833
▁dead	-4834
▁reve	-4835
▁suff	-4836
Please	-4837
▁cycle	-4838
▁Arrows	-4839
▁caused	-4840
▁joined	-4841
▁berries	-4842
▁shorter	-4843
▁whether	-4844
▁directly	-4845
▁ingredients	-4846
QR	-4847
▁$.	-4848
▁Co	-4849
aked	-4850
▁van	-4851
ambda	-4852
rceil	-4853
▁roof	-4854
▁tape	-4855
ervous	-4856
▁Other	-4857
▁goals	-4858
▁orders	-4859
▁evening	-4860
▁setting	-4861
▁pointing	-4862
▁palindrom	-4863
▁discriminant	-4864
▁quadrilateral	-4865
Sub	-4866
▁Ne	-4867
▁Sh	-4868
down	-4869
▁glue	-4870
▁quot	-4871
lished	-4872
▁Charl	-4873
▁Henry	-4874
▁Polly	-4875
tabular	-4876
▁horses	-4877
▁knight	-4878
▁mechan	-4879
▁factory	-4880
▁nervous	-4881
▁environment	-4882
▁independent	-4883
rame	-4884
suit	-4885
▁fear	-4886
▁reads	-4887
▁police	-4888
▁tables	-4889
▁skipped	-4890
▁branches	-4891
▁representation	-4892
)(\	-4893
iest	-4894
▁fat	-4895
▁pent	-4896
▁prim	-4897
lambda	-4898
▁images	-4899
▁states	-4900
Equality	-4901
▁laundry	-4902
▁organized	-4903
do	-4904
go	-4905
ene	-4906
reat	-4907
▁mph	-4908
acent	-4909
▁Euro	-4910
▁plays	-4911
▁sight	-4912
▁tries	-4913
▁Andrew	-4914
▁Combin	-4915
▁easier	-4916
▁expans	-4917
▁scores	-4918
▁America	-4919
▁classes	-4920
▁planets	-4921
▁particip	-4922
ca	-4923
))/	-4924
)}{(	-4925
blue	-4926
fact	-4927
▁Mad	-4928
▁gym	-4929
▁mas	-4930
▁mem	-4931
acing	-4932
▁Half	-4933
▁Kate	-4934
▁compl	-4935
▁jewel	-4936
▁aftern	-4937
▁polite	-4938
▁brothers	-4939
▁required	-4940
▁Gr	-4941
▁Ass	-4942
ipper	-4943
▁horn	-4944
riting	-4945
▁scarf	-4946
▁Tweety	-4947
▁camera	-4948
▁linear	-4949
▁stream	-4950
▁ashamed	-4951
▁earthqu	-4952
▁savings	-4953
▁disappeared	-4954
;}	-4955
ky	-4956
)",	-4957
aled	-4958
load	-4959
▁Ros	-4960
lceil	-4961
▁Jose	-4962
▁carp	-4963
▁dish	-4964
▁tidy	-4965
▁force	-4966
▁stops	-4967
▁tenth	-4968
▁Martha	-4969
▁famous	-4970
▁median	-4971
▁feathers	-4972
▁instruct	-4973
▁stronger	-4974
▁afternoon	-4975
▁multiplied	-4976
▁Furthermore	-4977
▁subtracting	-4978
fun	-4979
ler	-4980
ccer	-4981
▁Jac	-4982
▁Nat	-4983
▁Joey	-4984
▁adds	-4985
▁bees	-4986
▁capt	-4987
▁inch	-4988
▁panc	-4989
▁dimes	-4990
▁dolph	-4991
▁resid	-4992
▁solid	-4993
▁bacter	-4994
▁excite	-4995
▁respons	-4996
▁selfish	-4997
intercept	-4998
▁magnetic	-4999
▁happening	-5000
||	-5001
Are	-5002
roy	-5003
▁Pe	-5004
form	-5005
eterm	-5006
▁Matt	-5007
▁bicy	-5008
▁roar	-5009
▁David	-5010
▁Ticks	-5011
▁mummy	-5012
▁Europe	-5013
▁fluffy	-5014
▁packed	-5015
▁raised	-5016
▁source	-5017
▁giggled	-5018
▁hopping	-5019
▁originally	-5020
CE	-5021
So	-5022
xyz	-5023
▁Mag	-5024
▁Man	-5025
▁Harry	-5026
▁cloth	-5027
▁lying	-5028
ological	-5029
like	-5030
vies	-5031
▁spr	-5032
ament	-5033
ivity	-5034
ledge	-5035
▁Rose	-5036
▁deer	-5037
▁fine	-5038
▁harv	-5039
approx	-5040
▁chose	-5041
▁meals	-5042
▁rules	-5043
▁dollar	-5044
▁mirror	-5045
▁nature	-5046
▁safely	-5047
stitution	-5048
▁notation	-5049
▁expansion	-5050
?$	-5051
oli	-5052
omp	-5053
▁Af	-5054
),\]	-5055
)}$.	-5056
isha	-5057
▁cos	-5058
▁etc	-5059
▁ill	-5060
comes	-5061
orate	-5062
ashing	-5063
▁Mandy	-5064
▁atoms	-5065
▁cryst	-5066
▁pills	-5067
▁insect	-5068
▁answers	-5069
▁separate	-5070
▁excitement	-5071
.”	-5072
tes	-5073
▁Sy	-5074
acts	-5075
step	-5076
▁See	-5077
▁tie	-5078
▁rice	-5079
▁tiss	-5080
▁Carla	-5081
▁Carol	-5082
▁forth	-5083
▁frogs	-5084
▁semic	-5085
▁closet	-5086
▁soccer	-5087
▁tunnel	-5088
▁parking	-5089
▁surround	-5090
▁paintings	-5091
▁particles	-5092
▁frustrated	-5093
awn	-5094
▁MP	-5095
corn	-5096
isms	-5097
▁Pen	-5098
asing	-5099
▁Tina	-5100
▁flow	-5101
▁inde	-5102
▁symb	-5103
▁wolf	-5104
minute	-5105
▁edges	-5106
▁frequ	-5107
▁moves	-5108
▁recip	-5109
▁serve	-5110
▁shore	-5111
display	-5112
▁Daniel	-5113
▁incred	-5114
▁spaces	-5115
▁charges	-5116
▁cooking	-5117
▁invited	-5118
▁pennies	-5119
▁prevent	-5120
▁discover	-5121
▁Factoring	-5122
▁constants	-5123
displaystyle	-5124
irt	-5125
▁Dr	-5126
arry	-5127
ding	-5128
▁$$(	-5129
fered	-5130
▁chain	-5131
▁quite	-5132
▁sword	-5133
▁Thomas	-5134
▁gather	-5135
▁rewrite	-5136
▁potatoes	-5137
▁colourful	-5138
$).	-5139
fer	-5140
sha	-5141
aker	-5142
born	-5143
▁fab	-5144
▁soc	-5145
▁drop	-5146
▁nine	-5147
▁wins	-5148
issors	-5149
▁bored	-5150
▁falls	-5151
▁knife	-5152
▁terri	-5153
▁ending	-5154
▁flight	-5155
▁episodes	-5156
▁electrons	-5157
oft	-5158
▁Ob	-5159
tion	-5160
▁\[|	-5161
▁yog	-5162
since	-5163
useum	-5164
▁desk	-5165
▁drum	-5166
▁sqrt	-5167
▁arrow	-5168
▁north	-5169
▁nucle	-5170
▁outer	-5171
▁Hannah	-5172
▁breaks	-5173
▁descri	-5174
▁liquid	-5175
▁managed	-5176
▁circular	-5177
▁Eventually	-5178
ww	-5179
\}$	-5180
eez	-5181
rid	-5182
From	-5183
Stop	-5184
iter	-5185
opes	-5186
▁ants	-5187
▁shad	-5188
apping	-5189
▁event	-5190
▁penny	-5191
▁plans	-5192
▁shoot	-5193
▁sunfl	-5194
▁elimin	-5195
▁levels	-5196
▁consist	-5197
▁popcorn	-5198
▁exercise	-5199
▁generous	-5200
▁outcomes	-5201
▁functions	-5202
$)	-5203
|>	-5204
▁Acc	-5205
cepts	-5206
ushed	-5207
▁cere	-5208
▁cult	-5209
▁Afric	-5210
▁agree	-5211
▁newsp	-5212
▁towel	-5213
▁ruined	-5214
▁spring	-5215
▁symbol	-5216
etermine	-5217
▁Instead	-5218
▁appears	-5219
▁initial	-5220
▁unknown	-5221
▁windows	-5222
▁notebooks	-5223
▁jo	-5224
▁oz	-5225
Long	-5226
▁veh	-5227
▁kick	-5228
▁leop	-5229
▁seem	-5230
▁sens	-5231
arcsin	-5232
▁Learn	-5233
▁Sandy	-5234
▁maxim	-5235
▁assume	-5236
▁humans	-5237
▁sailed	-5238
&&&&&&&&	-5239
▁William	-5240
▁puppies	-5241
▁adjacent	-5242
▁homework	-5243
▁includes	-5244
▁employees	-5245
azy	-5246
imp	-5247
quar	-5248
▁boss	-5249
▁pets	-5250
▁messy	-5251
▁radio	-5252
▁stage	-5253
▁trips	-5254
▁fridge	-5255
▁salary	-5256
▁located	-5257
▁hundreds	-5258
▁lemonade	-5259
▁identical	-5260
▁suggested	-5261
rn	-5262
)-(	-5263
▁Fe	-5264
illa	-5265
umps	-5266
▁dam	-5267
▁eld	-5268
▁educ	-5269
▁sort	-5270
▁banana	-5271
▁boring	-5272
▁fabric	-5273
▁member	-5274
▁pepper	-5275
▁address	-5276
▁highest	-5277
▁theater	-5278
▁included	-5279
▁scissors	-5280
▁servings	-5281
gie	-5282
cing	-5283
uted	-5284
▁deb	-5285
▁Marc	-5286
▁orth	-5287
▁rule	-5288
▁Bella	-5289
▁behav	-5290
▁names	-5291
▁teams	-5292
▁affect	-5293
▁sheets	-5294
▁disease	-5295
▁happens	-5296
▁observe	-5297
▁offered	-5298
▁rolling	-5299
▁earnings	-5300
▁Expanding	-5301
▁knowledge	-5302
▁projection	-5303
▁caterpillar	-5304
En	-5305
▁AD	-5306
}\,(	-5307
▁Use	-5308
▁hun	-5309
▁pit	-5310
▁born	-5311
▁conj	-5312
▁lamp	-5313
▁nods	-5314
▁pole	-5315
▁rise	-5316
▁votes	-5317
▁bushes	-5318
▁escape	-5319
▁movies	-5320
▁telesc	-5321
▁measured	-5322
▁produces	-5323
▁thankful	-5324
▁containing	-5325
▁intersects	-5326
▁comfortable	-5327
,$$	-5328
},\	-5329
outs	-5330
owed	-5331
quit	-5332
▁Lola	-5333
▁auth	-5334
▁blow	-5335
▁pray	-5336
▁site	-5337
▁wire	-5338
▁basic	-5339
▁Calcul	-5340
▁School	-5341
▁detect	-5342
▁expand	-5343
▁strugg	-5344
▁control	-5345
▁convert	-5346
▁meeting	-5347
▁shopping	-5348
▁recognize	-5349
){	-5350
Who	-5351
mod	-5352
ugh	-5353
▁ok	-5354
case	-5355
▁dra	-5356
▁hay	-5357
oured	-5358
ppers	-5359
▁bull	-5360
▁joke	-5361
▁none	-5362
▁pine	-5363
▁crown	-5364
▁daily	-5365
▁novel	-5366
▁salad	-5367
▁spell	-5368
▁weird	-5369
▁Divide	-5370
▁associ	-5371
▁grapes	-5372
▁honest	-5373
▁mistake	-5374
▁solving	-5375
▁products	-5376
▁Determine	-5377
▁ur	-5378
mall	-5379
▁Bra	-5380
▁Rex	-5381
▁sib	-5382
▁Ella	-5383
▁Miss	-5384
▁achie	-5385
▁shake	-5386
▁sheet	-5387
▁twirl	-5388
▁molecu	-5389
▁wagged	-5390
▁pleased	-5391
$'	-5392
AT	-5393
▁—	-5394
For	-5395
ias	-5396
œLet	-5397
▁Jon	-5398
▁beet	-5399
hedron	-5400
▁Julia	-5401
▁bases	-5402
▁finds	-5403
▁infin	-5404
▁lives	-5405
▁patch	-5406
▁quart	-5407
▁Sophie	-5408
▁bounce	-5409
▁dishes	-5410
▁passing	-5411
▁theorem	-5412
▁various	-5413
▁younger	-5414
▁brownies	-5415
▁mathemat	-5416
▁pentagon	-5417
▁coordinate	-5418
How	-5419
cup	-5420
|>|	-5421
elta	-5422
▁Rep	-5423
▁bud	-5424
▁isn	-5425
▁oil	-5426
▁rev	-5427
▁typ	-5428
ified	-5429
▁beef	-5430
▁belt	-5431
▁cact	-5432
▁rich	-5433
▁seed	-5434
▁twig	-5435
▁Point	-5436
▁slice	-5437
▁zeros	-5438
inetype	-5439
▁altern	-5440
▁handle	-5441
▁rather	-5442
▁screen	-5443
▁smelly	-5444
▁cleaned	-5445
▁colored	-5446
▁earlier	-5447
▁instrum	-5448
▁sweetie	-5449
▁splashed	-5450
▁extension	-5451
OC	-5452
keep	-5453
ytop	-5454
▁Act	-5455
▁sod	-5456
clock	-5457
▁More	-5458
▁fake	-5459
▁valu	-5460
endoft	-5461
osquit	-5462
▁Susan	-5463
▁frame	-5464
▁leads	-5465
▁offic	-5466
▁tiger	-5467
▁cherry	-5468
endoftext	-5469
▁reliable	-5470
enty	-5471
onal	-5472
▁Jay	-5473
▁nod	-5474
▁pup	-5475
▁rid	-5476
))--(	-5477
}$",(	-5478
▁Give	-5479
▁Have	-5480
▁male	-5481
▁serv	-5482
▁worm	-5483
▁brain	-5484
▁pengu	-5485
illiant	-5486
▁attend	-5487
▁candle	-5488
▁interp	-5489
▁riding	-5490
▁Grandpa	-5491
▁journal	-5492
▁matches	-5493
▁muffins	-5494
▁medicine	-5495
▁sentence	-5496
▁teaching	-5497
To	-5498
arb	-5499
net	-5500
rie	-5501
▁Lu	-5502
iser	-5503
amely	-5504
eries	-5505
▁task	-5506
▁Ducky	-5507
▁brush	-5508
▁cries	-5509
▁enter	-5510
▁prize	-5511
▁strat	-5512
▁tails	-5513
▁therm	-5514
▁donuts	-5515
▁sighed	-5516
▁central	-5517
▁destroy	-5518
▁diamond	-5519
▁workers	-5520
▁wrapped	-5521
▁reciproc	-5522
▁valuable	-5523
▁magnitude	-5524
▁flashlight	-5525
'$	-5526
{,	-5527
)=(	-5528
una	-5529
▁vi	-5530
aren	-5531
nces	-5532
sequ	-5533
uddy	-5534
icing	-5535
rench	-5536
▁Many	-5537
▁Most	-5538
▁harm	-5539
▁lazy	-5540
▁relax	-5541
▁online	-5542
▁recomm	-5543
▁washed	-5544
▁rabbits	-5545
▁quotient	-5546
▁vacation	-5547
▁brilliant	-5548
▁initially	-5549
▁dependable	-5550
gn	-5551
▁&&	-5552
____	-5553
ware	-5554
▁nos	-5555
▁perm	-5556
▁pour	-5557
▁bikes	-5558
▁notes	-5559
▁shift	-5560
▁taxes	-5561
▁Recall	-5562
▁bisect	-5563
▁bitter	-5564
▁impact	-5565
▁papers	-5566
▁report	-5567
▁scream	-5568
▁remains	-5569
▁serious	-5570
▁Although	-5571
▁obtained	-5572
▁requires	-5573
▁incredible	-5574
▁simplified	-5575
|=	-5576
abs	-5577
▁OK	-5578
▁coo	-5579
)}.\]	-5580
sided	-5581
▁dashed	-5582
▁graphs	-5583
▁mighty	-5584
▁passen	-5585
▁throws	-5586
▁leading	-5587
▁approach	-5588
▁bacteria	-5589
▁continue	-5590
▁investig	-5591
▁neighbour	-5592
▁definition	-5593
▁proportional	-5594
Longrightarrow	-5595
/(	-5596
▁:	-5597
$-$	-5598
Ben	-5599
lcm	-5600
▁ml	-5601
("\(	-5602
body	-5603
ples	-5604
▁Des	-5605
▁End	-5606
▁fee	-5607
▁pun	-5608
alous	-5609
▁Snow	-5610
▁deal	-5611
▁east	-5612
▁salt	-5613
▁gifts	-5614
▁hurts	-5615
▁tough	-5616
▁medium	-5617
▁observ	-5618
▁distant	-5619
▁systems	-5620
coordinates	-5621
|$	-5622
aze	-5623
erg	-5624
mel	-5625
ades	-5626
ners	-5627
umes	-5628
▁Jam	-5629
▁nic	-5630
Enter	-5631
angar	-5632
▁tube	-5633
▁ahead	-5634
▁curve	-5635
▁elder	-5636
▁param	-5637
sidered	-5638
▁Resear	-5639
▁immedi	-5640
▁Charlie	-5641
▁charged	-5642
▁wealthy	-5643
▁Squaring	-5644
▁evidence	-5645
▁repeated	-5646
▁supplies	-5647
▁universe	-5648
▁apartment	-5649
▁asymptote	-5650
▁development	-5651
AF	-5652
no	-5653
yz	-5654
aid	-5655
urt	-5656
▁Gu	-5657
Well	-5658
▁Per	-5659
▁pee	-5660
heart	-5661
▁cuts	-5662
▁guit	-5663
laimed	-5664
terday	-5665
▁sauce	-5666
▁trash	-5667
▁trick	-5668
▁Taking	-5669
▁Tweetie	-5670
▁jealous	-5671
▁rectangles	-5672
//	-5673
RS	-5674
See	-5675
Sin	-5676
alk	-5677
mbox	-5678
otal	-5679
▁Mel	-5680
▁Ted	-5681
▁icy	-5682
▁liz	-5683
false	-5684
uture	-5685
▁Four	-5686
▁King	-5687
▁sock	-5688
▁swan	-5689
▁wife	-5690
arctan	-5691
cancel	-5692
▁March	-5693
▁Simon	-5694
▁ended	-5695
▁signs	-5696
▁trump	-5697
angaroo	-5698
jection	-5699
▁conver	-5700
▁grumpy	-5701
▁prince	-5702
▁reason	-5703
▁theory	-5704
▁tomato	-5705
▁stuffed	-5706
▁washing	-5707
▁provided	-5708
▁considered	-5709
!\	-5710
ED	-5711
urous	-5712
▁deck	-5713
keeper	-5714
umbled	-5715
velope	-5716
▁goose	-5717
▁minus	-5718
▁opens	-5719
▁waste	-5720
▁cereal	-5721
▁represented	-5722
ths	-5723
gest	-5724
unit	-5725
▁Out	-5726
oxide	-5727
▁Over	-5728
▁plot	-5729
▁scoo	-5730
▁surf	-5731
▁orbit	-5732
▁scare	-5733
▁tooth	-5734
▁conjug	-5735
▁fields	-5736
▁trains	-5737
▁drawings	-5738
▁envelope	-5739
▁explored	-5740
▁packages	-5741
▁adventurous	-5742
▁temperatures	-5743
▁`	-5744
+(-	-5745
eak	-5746
mid	-5747
}{-	-5748
reek	-5749
▁Dar	-5750
▁Dis	-5751
▁Liz	-5752
▁\[-	-5753
▁\\\	-5754
Sorry	-5755
œThat	-5756
▁caps	-5757
▁crow	-5758
▁dess	-5759
▁elev	-5760
▁goat	-5761
▁tied	-5762
istics	-5763
▁Jacob	-5764
▁capac	-5765
▁smoke	-5766
▁cactus	-5767
▁kissed	-5768
▁jellybe	-5769
▁kangaroo	-5770
▁contained	-5771
▁resources	-5772
▁neighborhood	-5773
ka	-5774
tee	-5775
van	-5776
yal	-5777
func	-5778
hell	-5779
indy	-5780
sion	-5781
▁Any	-5782
▁Cle	-5783
▁ess	-5784
gamma	-5785
night	-5786
▁bool	-5787
▁clap	-5788
▁flat	-5789
▁fool	-5790
▁surv	-5791
inking	-5792
▁Karen	-5793
▁commit	-5794
▁growth	-5795
▁remove	-5796
▁crawled	-5797
▁business	-5798
▁galaxies	-5799
▁messages	-5800
▁spending	-5801
▁studying	-5802
PC	-5803
loe	-5804
nis	-5805
ugs	-5806
ura	-5807
{,}	-5808
▁Im	-5809
clud	-5810
omic	-5811
▁pige	-5812
▁Brian	-5813
▁crick	-5814
▁grace	-5815
▁sixth	-5816
outhern	-5817
unately	-5818
▁paying	-5819
inguisha	-5820
▁Jackson	-5821
▁mosquit	-5822
▁pumpkin	-5823
▁cheerful	-5824
▁kindness	-5825
▁realised	-5826
▁terrible	-5827
▁jellybeans	-5828
PA	-5829
lt	-5830
Sim	-5831
▁oy	-5832
œYes	-5833
▁Pap	-5834
▁Expl	-5835
▁fart	-5836
▁obed	-5837
▁spac	-5838
▁Julie	-5839
▁telev	-5840
▁Comple	-5841
▁crayon	-5842
▁writes	-5843
▁replace	-5844
▁siblings	-5845
▁creatures	-5846
▁excitedly	-5847
▁blueberries	-5848
EC	-5849
NA	-5850
^^	-5851
ole	-5852
sim	-5853
œIt	-5854
▁Ca	-5855
ales	-5856
days	-5857
keys	-5858
ockey	-5859
▁Cong	-5860
▁Step	-5861
▁fund	-5862
shirts	-5863
square	-5864
▁depos	-5865
▁estim	-5866
▁tests	-5867
▁advice	-5868
▁future	-5869
▁saying	-5870
▁dresses	-5871
▁grandpa	-5872
▁container	-5873
▁relations	-5874
▁throughout	-5875
Me	-5876
$),	-5877
cas	-5878
lym	-5879
ruc	-5880
▁Cos	-5881
▁Kay	-5882
▁sam	-5883
▁tut	-5884
▁Mill	-5885
▁Moon	-5886
▁aunt	-5887
▁deli	-5888
▁grid	-5889
▁pale	-5890
▁rose	-5891
anging	-5892
ildren	-5893
▁health	-5894
▁towels	-5895
▁peaches	-5896
▁putting	-5897
▁sounded	-5898
▁thunder	-5899
▁compared	-5900
▁exclaimed	-5901
[/	-5902
(-\	-5903
Tim	-5904
▁Bre	-5905
▁Pre	-5906
▁jud	-5907
ellig	-5908
ember	-5909
œLetâ	-5910
▁situ	-5911
▁skip	-5912
▁Nancy	-5913
▁Space	-5914
▁Which	-5915
▁acute	-5916
▁magaz	-5917
▁valid	-5918
▁wagon	-5919
▁favour	-5920
▁winter	-5921
▁amounts	-5922
▁bicycle	-5923
▁portion	-5924
▁visited	-5925
▁belonged	-5926
▁fountain	-5927
▁obedient	-5928
▁Combining	-5929
▁bracelets	-5930
▁delighted	-5931
!".	-5932
ien	-5933
pic	-5934
pri	-5935
▁\,	-5936
Help	-5937
uary	-5938
▁paw	-5939
▁tar	-5940
aries	-5941
using	-5942
œWhat	-5943
▁Both	-5944
▁Lind	-5945
▁angel	-5946
▁homes	-5947
▁trade	-5948
▁repair	-5949
▁bubbles	-5950
▁closest	-5951
▁fishing	-5952
▁enjoying	-5953
▁identify	-5954
▁rotation	-5955
▁impressed	-5956
▁searching	-5957
▁experiment	-5958
OA	-5959
\{	-5960
cin	-5961
rho	-5962
etra	-5963
itor	-5964
lers	-5965
ords	-5966
umsy	-5967
▁pil	-5968
▁Beth	-5969
▁Blue	-5970
▁Like	-5971
▁flex	-5972
▁scat	-5973
▁shoe	-5974
▁wrap	-5975
ecraft	-5976
itical	-5977
▁Clara	-5978
▁hairc	-5979
▁steak	-5980
▁yaxis	-5981
mathcal	-5982
▁cancel	-5983
▁carpet	-5984
▁extend	-5985
▁galaxy	-5986
▁namely	-5987
ographic	-5988
▁century	-5989
▁options	-5990
▁prepare	-5991
▁brightly	-5992
▁features	-5993
▁exponents	-5994
inguishable	-5995
OD	-5996
{[	-5997
ada	-5998
nds	-5999
sur	-6000
wor	-6001
yan	-6002
▁Di	-6003
▁\$	-6004
eeze	-6005
piad	-6006
▁Med	-6007
▁cro	-6008
▁pow	-6009
▁Park	-6010
▁film	-6011
▁foci	-6012
▁nois	-6013
▁frown	-6014
▁guard	-6015
▁nails	-6016
▁stamp	-6017
▁xaxis	-6018
lympiad	-6019
▁invers	-6020
▁models	-6021
▁museum	-6022
▁turkey	-6023
▁grocery	-6024
▁microsc	-6025
▁reduced	-6026
▁refused	-6027
▁intellig	-6028
▁organize	-6029
▁celebrate	-6030
▁listening	-6031
▁necklaces	-6032
Re	-6033
,\\	-6034
hys	-6035
ios	-6036
pos	-6037
)*"$	-6038
itud	-6039
▁Its	-6040
▁Lou	-6041
▁zip	-6042
▁York	-6043
factor	-6044
ormous	-6045
▁drops	-6046
▁noisy	-6047
▁octop	-6048
▁yours	-6049
▁assess	-6050
▁dreams	-6051
▁shrimp	-6052
▁biggest	-6053
▁centers	-6054
▁elderly	-6055
▁examine	-6056
▁foolish	-6057
▁strateg	-6058
▁suggest	-6059
▁creating	-6060
▁dreaming	-6061
▁families	-6062
▁graceful	-6063
▁olympiad	-6064
▁presents	-6065
▁sections	-6066
▁necessary	-6067
▁traveling	-6068
-.	-6069
ai	-6070
gl	-6071
gx	-6072
nie	-6073
vey	-6074
))--	-6075
urse	-6076
▁hol	-6077
▁wid	-6078
▁Greg	-6079
▁Phil	-6080
▁dull	-6081
▁frag	-6082
▁hipp	-6083
▁resc	-6084
▁ribb	-6085
▁bears	-6086
▁author	-6087
▁exists	-6088
▁pirate	-6089
▁toward	-6090
▁attract	-6091
▁provides	-6092
▁endpoints	-6093
▁favourite	-6094
▁linewidth	-6095
▁spacecraft	-6096
▁competition	-6097
▁polynomials	-6098
▁combinations	-6099
Be	-6100
PR	-6101
ste	-6102
Size	-6103
\)",	-6104
hett	-6105
iana	-6106
month	-6107
▁Plan	-6108
▁saus	-6109
▁shut	-6110
▁viol	-6111
▁Danny	-6112
▁chase	-6113
▁colle	-6114
▁loyal	-6115
▁whale	-6116
▁covers	-6117
▁dimens	-6118
▁forces	-6119
▁supply	-6120
▁British	-6121
▁compass	-6122
▁decorat	-6123
▁reaches	-6124
▁variety	-6125
clockwise	-6126
▁customer	-6127
▁delicate	-6128
▁enormous	-6129
▁exponent	-6130
▁watermel	-6131
▁sequences	-6132
▁immediately	-6133
,”	-6134
ava	-6135
,\,\	-6136
cher	-6137
star	-6138
▁Day	-6139
▁Int	-6140
▁Sep	-6141
▁lic	-6142
▁vir	-6143
cases	-6144
gebra	-6145
▁bald	-6146
▁spun	-6147
isters	-6148
▁World	-6149
▁shark	-6150
▁toile	-6151
▁access	-6152
▁harder	-6153
▁popular	-6154
▁Plugging	-6155
▁anywhere	-6156
▁examples	-6157
▁hydrogen	-6158
▁movement	-6159
▁developed	-6160
<=	-6161
mn	-6162
▁ot	-6163
elle	-6164
▁fed	-6165
arily	-6166
water	-6167
▁$\|\	-6168
▁Ryan	-6169
▁fier	-6170
itudes	-6171
▁dizzy	-6172
▁march	-6173
▁uncom	-6174
▁Scient	-6175
▁bricks	-6176
▁eraser	-6177
▁hockey	-6178
▁ceiling	-6179
▁dolphin	-6180
▁improve	-6181
▁mission	-6182
▁astronom	-6183
▁sleeping	-6184
▁satisfying	-6185
)!	-6186
rx	-6187
]);	-6188
loc	-6189
}{}	-6190
ilty	-6191
▁ped	-6192
▁tap	-6193
asses	-6194
elery	-6195
lower	-6196
▁hero	-6197
bottom	-6198
▁Chloe	-6199
▁rearr	-6200
▁stock	-6201
alities	-6202
ormally	-6203
▁concent	-6204
▁dessert	-6205
▁persist	-6206
▁princip	-6207
▁Congress	-6208
▁receives	-6209
▁conjugate	-6210
▁statement	-6211
▁butterflies	-6212
ER	-6213
))=	-6214
))^	-6215
Cos	-6216
Here	-6217
ivil	-6218
urch	-6219
▁Cat	-6220
▁gem	-6221
overy	-6222
usion	-6223
▁Five	-6224
▁golf	-6225
▁Where	-6226
▁leash	-6227
▁trail	-6228
▁troph	-6229
▁copper	-6230
▁gasped	-6231
▁loudly	-6232
▁sudden	-6233
▁toilet	-6234
▁warned	-6235
▁dioxide	-6236
▁markers	-6237
▁plastic	-6238
▁trumpet	-6239
▁visible	-6240
▁volcano	-6241
▁workshe	-6242
▁designed	-6243
▁reminded	-6244
▁Calculate	-6245
▁attention	-6246
▁lollipops	-6247
▁measuring	-6248
▁dimensions	-6249
▁passengers	-6250
▁possibility	-6251
va	-6252
irp	-6253
▁-(	-6254
They	-6255
ille	-6256
pted	-6257
▁Meg	-6258
▁War	-6259
▁Papa	-6260
▁dots	-6261
▁pipe	-6262
▁tire	-6263
ishing	-6264
▁Cindy	-6265
▁South	-6266
▁absol	-6267
▁hence	-6268
▁lions	-6269
Because	-6270
▁clumsy	-6271
▁global	-6272
▁locked	-6273
▁needle	-6274
▁ability	-6275
▁achieve	-6276
▁peppers	-6277
▁stretch	-6278
▁stripes	-6279
▁watches	-6280
▁Whenever	-6281
▁clothing	-6282
▁communic	-6283
▁crackers	-6284
▁decorate	-6285
▁strength	-6286
projection	-6287
▁happiness	-6288
▁sunflower	-6289
▁Altogether	-6290
ott	-6291
uri	-6292
▁ol	-6293
▁=<<	-6294
▁imm	-6295
iders	-6296
oming	-6297
▁beak	-6298
▁cash	-6299
▁coal	-6300
▁glac	-6301
▁owns	-6302
▁pear	-6303
▁role	-6304
▁stub	-6305
▁aster	-6306
▁hotel	-6307
▁ounce	-6308
▁shone	-6309
herical	-6310
ossible	-6311
▁barber	-6312
▁brings	-6313
▁guilty	-6314
▁shield	-6315
▁taller	-6316
▁closely	-6317
▁slipped	-6318
▁expenses	-6319
▁interact	-6320
▁quantity	-6321
▁signific	-6322
▁stranger	-6323
▁eliminate	-6324
▁chocolates	-6325
▁completely	-6326
OP	-6327
\}	-6328
-(-	-6329
\[\	-6330
ena	-6331
lim	-6332
▁/*	-6333
Give	-6334
host	-6335
inked	-6336
▁axes	-6337
▁vend	-6338
return	-6339
▁Label	-6340
▁attic	-6341
▁bossy	-6342
▁calls	-6343
▁extre	-6344
rations	-6345
▁apolog	-6346
▁causes	-6347
▁fright	-6348
▁pebble	-6349
▁saving	-6350
▁twenty	-6351
▁strings	-6352
▁electron	-6353
▁infection	-6354
▁satisfied	-6355
▁reflection	-6356
▁arrangement	-6357
▁expressions	-6358
CA	-6359
▁×	-6360
dom	-6361
▁Ms	-6362
ebra	-6363
mons	-6364
▁aud	-6365
hetti	-6366
iform	-6367
}}.$$	-6368
▁Aust	-6369
▁Bobo	-6370
▁fork	-6371
▁nosy	-6372
▁rhin	-6373
▁acorn	-6374
▁photo	-6375
▁prote	-6376
▁south	-6377
▁sympt	-6378
▁toast	-6379
aghetti	-6380
▁chores	-6381
▁drawer	-6382
▁satell	-6383
▁sector	-6384
▁snakes	-6385
▁spoons	-6386
linetype	-6387
▁January	-6388
▁admired	-6389
▁combine	-6390
▁leopard	-6391
▁message	-6392
▁chemical	-6393
▁describe	-6394
▁spinning	-6395
▁stumbled	-6396
▁operation	-6397
▁multiplication	-6398
▁#	-6399
gre	-6400
▁((	-6401
▁Bun	-6402
▁und	-6403
place	-6404
▁Cont	-6405
▁adop	-6406
▁fert	-6407
▁fort	-6408
▁hive	-6409
▁moms	-6410
▁stup	-6411
ivered	-6412
▁tetra	-6413
▁barrel	-6414
▁fierce	-6415
▁lowest	-6416
▁rounds	-6417
▁towers	-6418
▁Without	-6419
▁billion	-6420
▁lessons	-6421
▁octopus	-6422
▁peanuts	-6423
▁delivery	-6424
▁spaghetti	-6425
▁thoughtful	-6426
PB	-6427
}{|	-6428
)}{\	-6429
Fill	-6430
▁Feb	-6431
▁sta	-6432
adium	-6433
sters	-6434
▁flav	-6435
▁hits	-6436
▁hose	-6437
▁poem	-6438
castle	-6439
▁alert	-6440
▁flute	-6441
▁tires	-6442
▁tummy	-6443
mentary	-6444
▁Martin	-6445
▁define	-6446
▁folder	-6447
▁handed	-6448
▁lifted	-6449
▁rushed	-6450
▁transl	-6451
▁visual	-6452
▁Writing	-6453
▁figures	-6454
▁proudly	-6455
▁sources	-6456
▁stadium	-6457
▁studied	-6458
▁studies	-6459
▁weighed	-6460
Expanding	-6461
▁identity	-6462
▁midpoints	-6463
▁organisms	-6464
Subtracting	-6465
▁reciprocal	-6466
▁decorations	-6467
/\	-6468
CB	-6469
asp	-6470
coa	-6471
ino	-6472
aurs	-6473
irit	-6474
isted	-6475
opter	-6476
ugged	-6477
uming	-6478
▁Last	-6479
▁\[(\	-6480
▁bent	-6481
▁maze	-6482
▁noun	-6483
arccos	-6484
iamond	-6485
▁Snowy	-6486
▁boots	-6487
▁cheap	-6488
▁cocoa	-6489
▁jokes	-6490
▁raced	-6491
▁scrat	-6492
▁tutor	-6493
▁zebra	-6494
▁French	-6495
▁action	-6496
▁beetle	-6497
▁celery	-6498
▁pillow	-6499
▁wallet	-6500
▁fingers	-6501
▁insects	-6502
▁machines	-6503
▁symptoms	-6504
▁according	-6505
▁characters	-6506
▁contribute	-6507
▁combination	-6508
%.	-6509
)|	-6510
)^{-	-6511
iley	-6512
pril	-6513
▁por	-6514
▁Remy	-6515
▁cous	-6516
▁lean	-6517
▁neut	-6518
▁pots	-6519
▁risk	-6520
atives	-6521
icient	-6522
mathrm	-6523
▁Randy	-6524
▁Rosie	-6525
▁allig	-6526
▁jumps	-6527
▁pilot	-6528
▁speak	-6529
▁spoke	-6530
▁licked	-6531
▁peeked	-6532
▁reduce	-6533
▁article	-6534
▁contact	-6535
▁demonst	-6536
▁telling	-6537
▁backpack	-6538
▁capacity	-6539
▁ordinary	-6540
▁generally	-6541
▁practiced	-6542
▁published	-6543
▁transport	-6544
▁congruence	-6545
▁friendship	-6546
▁corresponds	-6547
ech	-6548
emo	-6549
iar	-6550
yer	-6551
))*(	-6552
alar	-6553
▁Den	-6554
▁Ray	-6555
▁pha	-6556
bling	-6557
erved	-6558
▁hall	-6559
▁news	-6560
▁trou	-6561
▁wake	-6562
▁wing	-6563
ometer	-6564
tember	-6565
▁April	-6566
▁Kevin	-6567
▁sorts	-6568
▁budget	-6569
▁Teacher	-6570
▁harvest	-6571
▁playful	-6572
▁spilled	-6573
▁absolute	-6574
▁accepted	-6575
▁geometry	-6576
▁stubborn	-6577
▁completed	-6578
▁evolution	-6579
▁formation	-6580
▁mushrooms	-6581
▁thousands	-6582
▁intelligent	-6583
DF	-6584
]$	-6585
ls	-6586
ela	-6587
▁Ac	-6588
▁II	-6589
anes	-6590
prod	-6591
▁Ali	-6592
▁Bel	-6593
▁Flo	-6594
▁Gen	-6595
▁anx	-6596
▁aut	-6597
▁ema	-6598
▁voc	-6599
order	-6600
parab	-6601
▁Less	-6602
▁beds	-6603
▁croc	-6604
▁mang	-6605
▁mice	-6606
▁mild	-6607
▁prop	-6608
▁west	-6609
▁Class	-6610
▁boats	-6611
▁claim	-6612
▁juicy	-6613
▁lands	-6614
imately	-6615
▁sailor	-6616
▁served	-6617
▁switch	-6618
▁females	-6619
▁physics	-6620
▁arranged	-6621
▁bracelet	-6622
▁equality	-6623
▁flexible	-6624
▁shortest	-6625
▁composite	-6626
▁neighbors	-6627
▁parenthes	-6628
▁somewhere	-6629
▁earthquake	-6630
▁frightened	-6631
▁sandcastle	-6632
▁significant	-6633
\\\	-6634
ado	-6635
\}$.	-6636
ithm	-6637
lude	-6638
rich	-6639
▁BAC	-6640
▁Ric	-6641
▁dre	-6642
▁mel	-6643
anced	-6644
apped	-6645
flect	-6646
▁Hist	-6647
▁July	-6648
▁Rick	-6649
▁emer	-6650
▁hoop	-6651
▁raft	-6652
▁void	-6653
itches	-6654
▁Milly	-6655
▁Stand	-6656
▁Total	-6657
▁comet	-6658
▁goats	-6659
itation	-6660
▁baking	-6661
▁begins	-6662
▁illust	-6663
▁nation	-6664
▁rights	-6665
▁solved	-6666
▁statue	-6667
▁conduct	-6668
▁dreamed	-6669
▁winning	-6670
ification	-6671
▁careless	-6672
▁described	-6673
▁molecules	-6674
▁collecting	-6675
▁persistent	-6676
):	-6677
<\	-6678
nn	-6679
put	-6680
▁+\	-6681
▁US	-6682
icon	-6683
mand	-6684
onse	-6685
▁hem	-6686
ruary	-6687
▁Nemo	-6688
▁barn	-6689
▁dove	-6690
▁grav	-6691
▁pigs	-6692
▁trad	-6693
iments	-6694
priate	-6695
▁Brend	-6696
▁Chris	-6697
▁baked	-6698
▁cones	-6699
▁crane	-6700
▁ghost	-6701
▁rings	-6702
▁stove	-6703
▁witch	-6704
artment	-6705
surface	-6706
▁planes	-6707
▁rubber	-6708
▁settle	-6709
▁social	-6710
▁Cosines	-6711
▁cartons	-6712
▁clearly	-6713
▁cutting	-6714
▁profess	-6715
▁related	-6716
▁residue	-6717
▁complain	-6718
▁download	-6719
▁introduc	-6720
▁probably	-6721
▁imaginary	-6722
fortunately	-6723
▁containers	-6724
▁impossible	-6725
▁wavelength	-6726
▁Simplifying	-6727
ont	-6728
▁mi	-6729
rict	-6730
▁Tre	-6731
▁axe	-6732
▁sle	-6733
iture	-6734
lands	-6735
space	-6736
▁code	-6737
▁furn	-6738
▁reef	-6739
▁torn	-6740
▁trap	-6741
mother	-6742
▁batch	-6743
▁chrom	-6744
▁flies	-6745
▁habit	-6746
▁behave	-6747
▁bubble	-6748
▁rubbed	-6749
fortable	-6750
▁Another	-6751
▁February	-6752
▁cherries	-6753
▁climbing	-6754
▁released	-6755
▁reflected	-6756
▁associated	-6757
▁uncomfortable	-6758
=-\	-6759
ann	-6760
dge	-6761
eer	-6762
▁>=	-6763
▁Mc	-6764
Also	-6765
rick	-6766
robe	-6767
▁sed	-6768
▁ske	-6769
above	-6770
count	-6771
eezed	-6772
pered	-6773
▁Eric	-6774
▁copy	-6775
iences	-6776
▁Laura	-6777
▁colon	-6778
▁hippo	-6779
▁influ	-6780
▁nurse	-6781
▁offer	-6782
▁otter	-6783
▁sense	-6784
▁thief	-6785
cluding	-6786
ography	-6787
▁UnFill	-6788
▁louder	-6789
▁paints	-6790
▁spirit	-6791
▁termin	-6792
▁trophy	-6793
▁wishes	-6794
▁applied	-6795
▁respond	-6796
▁uniform	-6797
▁compound	-6798
▁harmless	-6799
▁observed	-6800
▁perspect	-6801
▁Americans	-6802
▁September	-6803
▁committee	-6804
▁discovery	-6805
▁distances	-6806
▁elephants	-6807
▁whispered	-6808
▁palindrome	-6809
▁production	-6810
=.	-6811
isp	-6812
▁``	-6813
).$$	-6814
gust	-6815
nuts	-6816
hanks	-6817
works	-6818
▁cudd	-6819
▁dais	-6820
▁gira	-6821
isions	-6822
▁Under	-6823
▁Would	-6824
▁cabin	-6825
▁males	-6826
▁prism	-6827
ibility	-6828
quarium	-6829
▁Circle	-6830
▁beauty	-6831
▁church	-6832
▁poured	-6833
▁powder	-6834
▁recipe	-6835
▁compare	-6836
▁daisies	-6837
▁monkeys	-6838
▁sticker	-6839
▁minimize	-6840
▁pancakes	-6841
▁throwing	-6842
▁approaches	-6843
▁television	-6844
+=	-6845
CF	-6846
ES	-6847
cq	-6848
ano	-6849
▁Ag	-6850
▁BD	-6851
wide	-6852
▁Ast	-6853
▁CDs	-6854
▁doc	-6855
▁pad	-6856
cream	-6857
hange	-6858
igail	-6859
irsty	-6860
istic	-6861
▁Buzz	-6862
▁Call	-6863
▁chim	-6864
interp	-6865
ogonal	-6866
tering	-6867
xright	-6868
▁assum	-6869
▁fluid	-6870
▁loses	-6871
▁sadly	-6872
▁sizes	-6873
▁snugg	-6874
▁wheat	-6875
▁People	-6876
▁annual	-6877
▁guitar	-6878
▁indeed	-6879
▁lizard	-6880
▁reward	-6881
▁sample	-6882
▁stupid	-6883
▁TicksAr	-6884
▁consume	-6885
▁farther	-6886
▁forming	-6887
arrowsize	-6888
▁changing	-6889
▁charming	-6890
▁suggests	-6891
▁yesterday	-6892
▁orthogonal	-6893
▁strawberry	-6894
pq	-6895
}|	-6896
ana	-6897
▁yz	-6898
iece	-6899
vere	-6900
▁Equ	-6901
▁Rog	-6902
▁Sum	-6903
▁lif	-6904
ental	-6905
orant	-6906
▁Baby	-6907
▁High	-6908
▁Kyle	-6909
▁Luna	-6910
▁chip	-6911
▁poll	-6912
▁prec	-6913
▁trac	-6914
ipment	-6915
mathop	-6916
radius	-6917
▁explo	-6918
▁fever	-6919
▁pitch	-6920
▁sniff	-6921
▁Amanda	-6922
▁cooler	-6923
▁income	-6924
▁jacket	-6925
▁lemons	-6926
▁rescue	-6927
▁shadow	-6928
▁sweets	-6929
▁zipper	-6930
▁Abigail	-6931
▁baskets	-6932
▁disgust	-6933
▁fastest	-6934
▁shelter	-6935
▁spoiled	-6936
▁brighter	-6937
▁bringing	-6938
▁physical	-6939
▁progress	-6940
▁response	-6941
▁soldiers	-6942
▁furniture	-6943
▁lightning	-6944
▁president	-6945
▁shopkeeper	-6946
AO	-6947
fa	-6948
▁•	-6949
cri	-6950
ulf	-6951
}}[	-6952
▁&$	-6953
▁pA	-6954
anks	-6955
▁Cur	-6956
▁gor	-6957
▁spi	-6958
ccoli	-6959
olves	-6960
rical	-6961
▁Cent	-6962
▁flip	-6963
▁glow	-6964
▁stom	-6965
▁acres	-6966
▁conve	-6967
▁hedge	-6968
▁helic	-6969
▁polar	-6970
▁wiped	-6971
▁compos	-6972
▁counts	-6973
▁fisher	-6974
▁motion	-6975
▁target	-6976
▁England	-6977
▁anxious	-6978
▁crystal	-6979
▁married	-6980
▁release	-6981
underline	-6982
▁infinite	-6983
▁triangular	-6984
▁differences	-6985
)?	-6986
Is	-6987
YZ	-6988
vis	-6989
▁ir	-6990
kins	-6991
utes	-6992
▁Nor	-6993
▁Ven	-6994
▁Kend	-6995
▁Sand	-6996
▁dive	-6997
▁donâ	-6998
▁hook	-6999
▁jars	-7000
iables	-7001
▁appre	-7002
▁chart	-7003
▁chess	-7004
▁coats	-7005
▁subst	-7006
▁whist	-7007
itional	-7008
▁Freddy	-7009
▁arrive	-7010
▁fertil	-7011
▁nearly	-7012
▁nicely	-7013
▁revers	-7014
▁ribbon	-7015
▁seeing	-7016
▁vendor	-7017
ulations	-7018
▁chasing	-7019
▁couldnâ	-7020
▁courage	-7021
▁keeping	-7022
▁shaking	-7023
▁attended	-7024
▁patterns	-7025
▁planning	-7026
▁seashell	-7027
▁buildings	-7028
▁asymptotes	-7029
▁microphone	-7030
eck	-7031
men	-7032
}}=	-7033
▁hi	-7034
Tick	-7035
abul	-7036
axes	-7037
ival	-7038
rell	-7039
▁alg	-7040
▁mer	-7041
▁oak	-7042
arian	-7043
cking	-7044
ortun	-7045
▁Luke	-7046
▁Math	-7047
▁Only	-7048
▁chap	-7049
▁encl	-7050
▁quiz	-7051
▁semi	-7052
origin	-7053
▁bulbs	-7054
▁estab	-7055
▁harsh	-7056
▁kitty	-7057
▁minor	-7058
▁truth	-7059
▁Maggie	-7060
▁approx	-7061
▁hammer	-7062
▁helmet	-7063
▁kicked	-7064
▁shakes	-7065
▁tennis	-7066
▁burning	-7067
▁chimney	-7068
▁mangoes	-7069
▁behavior	-7070
▁bullying	-7071
▁ignorant	-7072
▁normally	-7073
▁According	-7074
Multiplying	-7075
▁destination	-7076
cx	-7077
ula	-7078
four	-7079
▁Lab	-7080
▁hus	-7081
▁ink	-7082
iring	-7083
storm	-7084
▁Jord	-7085
▁file	-7086
▁foss	-7087
▁trig	-7088
▁Megan	-7089
▁Obser	-7090
▁Roger	-7091
▁disag	-7092
▁hurry	-7093
▁limit	-7094
▁miser	-7095
▁pasta	-7096
▁tasks	-7097
ability	-7098
▁Intern	-7099
▁cooked	-7100
▁crocod	-7101
▁events	-7102
▁laughs	-7103
▁roared	-7104
▁tissue	-7105
izations	-7106
▁battery	-7107
▁checked	-7108
▁entered	-7109
▁shocked	-7110
▁attached	-7111
▁choosing	-7112
▁collects	-7113
▁lollipop	-7114
▁dotfactor	-7115
▁equipment	-7116
▁miserable	-7117
▁newspaper	-7118
▁electrical	-7119
▁helicopter	-7120
▁microscope	-7121
▁electricity	-7122
▁construction	-7123
He	-7124
OU	-7125
$.)	-7126
cccc	-7127
nels	-7128
rays	-7129
roll	-7130
▁apr	-7131
▁lip	-7132
▁ple	-7133
▁rug	-7134
▁web	-7135
rough	-7136
▁Barb	-7137
▁Gary	-7138
▁core	-7139
▁oats	-7140
▁plug	-7141
▁grows	-7142
▁trunk	-7143
▁Robert	-7144
▁evenly	-7145
▁petals	-7146
▁potato	-7147
▁public	-7148
▁repeat	-7149
▁skelet	-7150
▁slides	-7151
resident	-7152
▁holiday	-7153
▁Children	-7154
▁aquarium	-7155
▁argument	-7156
▁binomial	-7157
▁imagined	-7158
▁sparkled	-7159
▁sentences	-7160
▁variables	-7161
▁Completing	-7162
▁semicircle	-7163
▁inequalities	-7164
\,	-7165
igl	-7166
rap	-7167
band	-7168
mpoo	-7169
}_{\	-7170
▁Pas	-7171
▁Ten	-7172
▁ash	-7173
▁jug	-7174
eline	-7175
igure	-7176
ously	-7177
▁bulb	-7178
▁coup	-7179
▁hadn	-7180
▁sofa	-7181
▁tray	-7182
▁Katie	-7183
▁inner	-7184
▁knock	-7185
▁manag	-7186
▁steal	-7187
abulary	-7188
▁Joseph	-7189
▁compon	-7190
▁appreci	-7191
▁envious	-7192
▁rounded	-7193
▁although	-7194
▁broccoli	-7195
▁evaluate	-7196
▁numbered	-7197
▁blueberry	-7198
▁cardboard	-7199
▁community	-7200
▁seashells	-7201
ternatively	-7202
▁grandmother	-7203
▁Unfortunately	-7204
wo	-7205
}/	-7206
bre	-7207
det	-7208
eps	-7209
pat	-7210
▁CO	-7211
▁yi	-7212
eath	-7213
▁&=&	-7214
▁Joy	-7215
▁ded	-7216
Label	-7217
▁Comb	-7218
▁Draw	-7219
▁accu	-7220
▁heal	-7221
▁laps	-7222
▁rays	-7223
▁sums	-7224
estern	-7225
▁mixer	-7226
▁shots	-7227
▁sneak	-7228
▁Center	-7229
▁Millie	-7230
▁babies	-7231
▁recurs	-7232
▁stared	-7233
▁violin	-7234
▁winner	-7235
▁burgers	-7236
▁chromos	-7237
▁fragile	-7238
▁overall	-7239
▁primary	-7240
▁reduces	-7241
▁shampoo	-7242
▁thirsty	-7243
▁Research	-7244
▁bisector	-7245
▁cupboard	-7246
▁magazine	-7247
▁prepared	-7248
▁destroyed	-7249
▁Scientists	-7250
▁investigate	-7251
▁perspective	-7252
)^{\	-7253
back	-7254
racy	-7255
with	-7256
▁ACB	-7257
▁Aug	-7258
▁dug	-7259
▁tex	-7260
hakes	-7261
rings	-7262
ublic	-7263
▁Jean	-7264
▁Nick	-7265
▁acid	-7266
▁outf	-7267
▁avoid	-7268
▁purse	-7269
▁radii	-7270
▁refer	-7271
▁rides	-7272
▁surre	-7273
▁sweat	-7274
Setting	-7275
▁active	-7276
▁birdie	-7277
▁donate	-7278
▁gained	-7279
▁lawyer	-7280
▁pigeon	-7281
▁Jessica	-7282
▁chooses	-7283
▁cricket	-7284
▁depends	-7285
▁mystery	-7286
▁construc	-7287
▁dinosaurs	-7288
▁fisherman	-7289
▁parameter	-7290
▁telephone	-7291
▁scientific	-7292
▁sweetheart	-7293
BP	-7294
Yay	-7295
bby	-7296
bur	-7297
deg	-7298
}&=	-7299
$&$+	-7300
mbur	-7301
▁Art	-7302
▁Cla	-7303
▁vib	-7304
)--(.	-7305
ander	-7306
ombus	-7307
ucked	-7308
▁aren	-7309
▁logs	-7310
normal	-7311
orable	-7312
▁Buddy	-7313
▁Calif	-7314
▁Jamie	-7315
▁Kelly	-7316
▁absor	-7317
▁bloom	-7318
▁reind	-7319
▁saves	-7320
▁screw	-7321
▁tract	-7322
▁hambur	-7323
▁modest	-7324
▁stress	-7325
▁Antarct	-7326
▁license	-7327
▁mailbox	-7328
▁tablesp	-7329
ictionary	-7330
▁shooting	-7331
▁textbook	-7332
▁stretched	-7333
▁appropriate	-7334
▁astronomers	-7335
▁competitive	-7336
gb	-7337
|,	-7338
("%	-7339
,(-	-7340
avy	-7341
bie	-7342
bor	-7343
ety	-7344
lle	-7345
▁Ty	-7346
alph	-7347
arnt	-7348
roid	-7349
▁Big	-7350
▁vet	-7351
itely	-7352
▁dele	-7353
▁lect	-7354
▁rele	-7355
▁xmin	-7356
▁babys	-7357
▁impat	-7358
▁keeps	-7359
▁laser	-7360
▁shine	-7361
▁worms	-7362
▁admire	-7363
▁layers	-7364
▁learnt	-7365
▁marked	-7366
▁cheaper	-7367
▁payment	-7368
▁reverse	-7369
Similarly	-7370
▁elevator	-7371
▁involved	-7372
▁mistakes	-7373
▁reindeer	-7374
▁positions	-7375
▁proportion	-7376
▁structures	-7377
▁technology	-7378
▁tetrahedron	-7379
GH	-7380
Ow	-7381
ki	-7382
|}	-7383
))$	-7384
asm	-7385
hex	-7386
ita	-7387
udy	-7388
"));	-7389
]));	-7390
proj	-7391
uing	-7392
▁Mod	-7393
▁Yes	-7394
▁eru	-7395
▁fan	-7396
▁itâ	-7397
▁tear	-7398
▁tuna	-7399
▁vacc	-7400
parent	-7401
▁Ellie	-7402
▁hairy	-7403
▁piggy	-7404
oratory	-7405
▁burned	-7406
▁cylind	-7407
▁grades	-7408
▁scoops	-7409
▁weekly	-7410
▁Combine	-7411
▁beneath	-7412
▁encoura	-7413
▁graders	-7414
▁kittens	-7415
▁sisters	-7416
▁suppose	-7417
▁twirled	-7418
▁believed	-7419
▁maximize	-7420
▁mechanic	-7421
▁opportun	-7422
▁replaced	-7423
▁troubled	-7424
▁doughnuts	-7425
▁impatient	-7426
▁telescope	-7427
▁disgusting	-7428
▁motorcycle	-7429
+.	-7430
AX	-7431
ii	-7432
://	-7433
ube	-7434
war	-7435
grid	-7436
izer	-7437
}},$	-7438
▁Min	-7439
▁bon	-7440
▁sen	-7441
▁umb	-7442
pound	-7443
▁deaf	-7444
▁leak	-7445
▁vest	-7446
▁yawn	-7447
itting	-7448
▁flips	-7449
▁glove	-7450
▁incor	-7451
▁sites	-7452
▁August	-7453
▁Marcus	-7454
▁parade	-7455
▁poison	-7456
▁review	-7457
▁wooden	-7458
▁algebra	-7459
▁doubled	-7460
▁hearing	-7461
▁predict	-7462
▁pushing	-7463
▁puzzles	-7464
▁subject	-7465
▁umbrell	-7466
▁achieved	-7467
▁determin	-7468
▁crocodile	-7469
▁groceries	-7470
▁squirrels	-7471
▁technique	-7472
▁revolution	-7473
▁parentheses	-7474
/.	-7475
An	-7476
br	-7477
]{\	-7478
imi	-7479
▁Ma	-7480
▁Sl	-7481
elve	-7482
iper	-7483
œYou	-7484
▁Jer	-7485
▁Reg	-7486
▁fas	-7487
▁jet	-7488
▁kay	-7489
balls	-7490
eding	-7491
iolet	-7492
nding	-7493
ornia	-7494
▁Russ	-7495
▁arch	-7496
▁neat	-7497
oceros	-7498
ulated	-7499
▁Click	-7500
▁Green	-7501
▁doors	-7502
▁insur	-7503
▁jolly	-7504
▁texts	-7505
▁collar	-7506
▁crates	-7507
▁stores	-7508
▁concept	-7509
▁curtain	-7510
▁donated	-7511
▁falling	-7512
▁rhombus	-7513
▁schools	-7514
▁sweater	-7515
▁vehicle	-7516
ashington	-7517
▁feelings	-7518
▁mosquito	-7519
▁reaction	-7520
▁potential	-7521
▁purchased	-7522
▁spherical	-7523
▁Everything	-7524
▁compassion	-7525
▁impressive	-7526
▁interested	-7527
▁rhinoceros	-7528
▁responsible	-7529
vi	-7530
xz	-7531
^{(	-7532
bec	-7533
hus	-7534
off	-7535
▁Me	-7536
▁pB	-7537
amin	-7538
elia	-7539
erve	-7540
gets	-7541
olve	-7542
▁Rub	-7543
▁Soc	-7544
▁lid	-7545
▁ult	-7546
▁wed	-7547
akery	-7548
ushes	-7549
▁Line	-7550
▁jail	-7551
▁knob	-7552
▁luck	-7553
▁webs	-7554
shaped	-7555
▁Ralph	-7556
▁categ	-7557
▁freed	-7558
▁paths	-7559
▁peach	-7560
▁teasp	-7561
▁thumb	-7562
▁actual	-7563
▁hoping	-7564
▁phones	-7565
▁recent	-7566
▁sevent	-7567
▁stable	-7568
▁chamber	-7569
▁imagine	-7570
▁longest	-7571
▁Applying	-7572
▁goldfish	-7573
▁sunlight	-7574
▁worksheet	-7575
▁discussion	-7576
'.	-7577
PF	-7578
oz	-7579
yd	-7580
((.	-7581
Ste	-7582
rop	-7583
see	-7584
sey	-7585
▁ut	-7586
teen	-7587
uals	-7588
ubby	-7589
vals	-7590
▁Mex	-7591
▁Tra	-7592
▁Who	-7593
▁rhy	-7594
▁Dist	-7595
▁Help	-7596
▁Jere	-7597
▁gear	-7598
▁host	-7599
▁laid	-7600
▁mama	-7601
▁slid	-7602
▁soar	-7603
person	-7604
▁Black	-7605
▁crazy	-7606
▁raven	-7607
isphere	-7608
reflect	-7609
▁System	-7610
▁attach	-7611
▁candid	-7612
▁chubby	-7613
▁distur	-7614
▁enthus	-7615
▁intern	-7616
▁memory	-7617
▁planks	-7618
▁shower	-7619
▁batches	-7620
▁contest	-7621
▁convers	-7622
▁medical	-7623
▁methods	-7624
▁nowhere	-7625
▁painter	-7626
▁raining	-7627
▁settled	-7628
▁succeed	-7629
▁recorded	-7630
▁countries	-7631
▁treatment	-7632
▁strategies	-7633
▁performance	-7634
!=	-7635
++	-7636
CR	-7637
big	-7638
des	-7639
irm	-7640
▁Iâ	-7641
▁aw	-7642
ipes	-7643
unch	-7644
walk	-7645
yond	-7646
▁vow	-7647
("%",	-7648
esian	-7649
istry	-7650
mples	-7651
osity	-7652
riend	-7653
▁Anne	-7654
▁quit	-7655
▁tour	-7656
▁ward	-7657
stairs	-7658
▁Kayla	-7659
▁coinc	-7660
▁freez	-7661
▁jeans	-7662
▁porch	-7663
▁pulls	-7664
▁sungl	-7665
▁topic	-7666
▁Kendra	-7667
▁allows	-7668
▁deeper	-7669
▁extern	-7670
▁gloomy	-7671
▁offers	-7672
▁oyster	-7673
▁	-7674
e	-7675
a	-7676
t	-7677
o	-7678
n	-7679
i	-7680
s	-7681
r	-7682
h	-7683
d	-7684
l	-7685
c	-7686
m	-7687
u	-7688
y	-7689
f	-7690
w	-7691
.	-7692
g	-7693
p	-7694
b	-7695
,	-7696
$	-7697
\	-7698
0	-7699
2	-7700
1	-7701
k	-7702
v	-7703
{	-7704
}	-7705
=	-7706
)	-7707
(	-7708
-	-7709
x	-7710
T	-7711
3	-7712
S	-7713
+	-7714
5	-7715
"	-7716
4	-7717
*	-7718
H	-7719
^	-7720
6	-7721
A	-7722
:	-7723
<	-7724
?	-7725
q	-7726
>	-7727
B	-7728
I	-7729
8	-7730
;	-7731
'	-7732
7	-7733
P	-7734
L	-7735
9	-7736
C	-7737
W	-7738
O	-7739
M	-7740
#	-7741
z	-7742
/	-7743
!	-7744
E	-7745
&	-7746
D	-7747
[	-7748
]	-7749
F	-7750
J	-7751
_	-7752
j	-7753
N	-7754
R	-7755
Y	-7756
|	-7757
G	-7758
€	-7759
â	-7760
K	-7761
Q	-7762
%	-7763
V	-7764
U	-7765
X	-7766
’	-7767
œ	-7768
Z	-7769
™	-7770
“	-7771
”	-7772
–	-7773
@	-7774
—	-7775
`	-7776
~	-7777
•	-7778
×	-7779
°	-7780
©	-7781
‘	-7782
é	-7783
…	-7784
ñ	-7785
ƒ	-7786
−	-7787
ö	-7788
θ	-7789
í	-7790
÷	-7791
π	-7792
˜	-7793
£	-7794
ā	-7795
·	-7796
³	-7797
²	-7798
á	-7799
¢	-7800
»	-7801
ī	-7802
∑	-7803
 	-7804
Ã	-7805
α	-7806
†	-7807
Â	-7808
ä	-7809
ː	-7810
φ	-7811
ω	-7812
→	-7813
√	-7814
½	-7815
ρ	-7816
®	-7817
ʃ	-7818
¦	-7819
´	-7820
µ	-7821
º	-7822
ˈ	-7823
λ	-7824
ν	-7825
↑	-7826
≡	-7827
«	-7828
ç	-7829
ü	-7830
Ω	-7831
′	-7832
±	-7833
ã	-7834
ē	-7835
γ	-7836
ς	-7837
τ	-7838
ϕ	-7839
⅓	-7840
か	-7841
¼	-7842
à	-7843
ɬ	-7844
ʔ	-7845
˚	-7846
ι	-7847
μ	-7848
σ	-7849
〜	-7850
嘖	-7851
¾	-7852
Å	-7853
è	-7854
ó	-7855
ø	-7856
ō	-7857
ə	-7858
ʌ	-7859
͡	-7860
Δ	-7861
ε	-7862
κ	-7863
ο	-7864
―	-7865
›	-7866
≤	-7867
¡	-7868
ù	-7869
ʇ	-7870
ʒ	-7871
ʿ	-7872
ξ	-7873
ύ	-7874
ḗ	-7875
ῆ	-7876
 	-7877
″	-7878
←	-7879
∫	-7880
≈	-7881
≥	-7882
。	-7883
す	-7884
で	-7885
一	-7886
三	-7887
�	-7888
Á	-7889
å	-7890
æ	-7891
ð	-7892
ò	-7893
ú	-7894
ÿ	-7895
Ė	-7896
ĭ	-7897
ı	-7898
ŋ	-7899
ŏ	-7900
ū	-7901
ɝ	-7902
ɪ	-7903
ɸ	-7904
ʾ	-7905
̄	-7906
Π	-7907
ά	-7908
ί	-7909
ό	-7910
ḥ	-7911
ἄ	-7912
‡	-7913
℧	-7914
↓	-7915
∞	-7916
►	-7917
、	-7918
い	-7919
さ	-7920
な	-7921
ね	-7922
は	-7923
助	-7924
吼	-7925
呀	-7926
哎	-7927
噯	-7928
詞	-7929
자	-7930
한	-7931
